{
  "version": "1.0",
  "truncation": null,
  "padding": null,
  "added_tokens": [
    {
      "id": 0,
      "content": "<eos>",
      "single_word": false,
      "lstrip": false,
      "rstrip": false,
      "normalized": false,
      "special": true
    }
  ],
  "normalizer": {
    "type": "NFKC"
  },
  "pre_tokenizer": {
    "type": "ByteLevel",
    "add_prefix_space": true,
    "trim_offsets": true,
    "use_regex": true
  },
  "post_processor": null,
  "decoder": {
    "type": "ByteLevel",
    "add_prefix_space": true,
    "trim_offsets": true,
    "use_regex": true
  },
  "model": {
    "type": "BPE",
    "dropout": null,
    "unk_token": null,
    "continuing_subword_prefix": null,
    "end_of_word_suffix": null,
    "fuse_unk": false,
    "byte_fallback": false,
    "ignore_merges": false,
    "vocab": {
      "<eos>": 0,
      "!": 1,
      "\"": 2,
      "'": 3,
      "(": 4,
      ")": 5,
      ",": 6,
      "-": 7,
      ".": 8,
      ":": 9,
      ";": 10,
      "<": 11,
      ">": 12,
      "?": 13,
      "e": 14,
      "o": 15,
      "s": 16,
      "¡": 17,
      "¢": 18,
      "£": 19,
      "¤": 20,
      "¥": 21,
      "¦": 22,
      "§": 23,
      "¨": 24,
      "©": 25,
      "ª": 26,
      "«": 27,
      "¬": 28,
      "®": 29,
      "¯": 30,
      "°": 31,
      "²": 32,
      "¶": 33,
      "·": 34,
      "¸": 35,
      "¹": 36,
      "¼": 37,
      "¾": 38,
      "¿": 39,
      "à": 40,
      "â": 41,
      "Ġ": 42,
      "Ģ": 43,
      "ģ": 44,
      "Ĥ": 45,
      "ĥ": 46,
      "ħ": 47,
      "Ĩ": 48,
      "ĩ": 49,
      "Ī": 50,
      "ī": 51,
      "Ĭ": 52,
      "ĭ": 53,
      "Į": 54,
      "į": 55,
      "İ": 56,
      "ı": 57,
      "Ĳ": 58,
      "ĵ": 59,
      "Ķ": 60,
      "ķ": 61,
      "ĸ": 62,
      "Ĺ": 63,
      "ĺ": 64,
      "Ļ": 65,
      "ļ": 66,
      "Ľ": 67,
      "ľ": 68,
      "Ŀ": 69,
      "ŀ": 70,
      "Ł": 71,
      "ł": 72,
      "Ń": 73,
      "à¦": 74,
      "à§": 75,
      "Ġà¦": 76,
      "à¦¾": 77,
      "à§ĩ": 78,
      "à¦°": 79,
      "à¦¿": 80,
      "à§į": 81,
      "à¦¨": 82,
      "à¦¯": 83,
      "à¦¤": 84,
      "à¦ķ": 85,
      "à¦²": 86,
      "à¦¼": 87,
      "à¦¬": 88,
      "Ġà¦ķ": 89,
      "à§ģ": 90,
      "à¦®": 91,
      "Ġà¦¬": 92,
      "Ġà¦¸": 93,
      "à§ĭ": 94,
      "à¦¦": 95,
      "Ġà¦ª": 96,
      "à¦¸": 97,
      "Ġà¦Ĩ": 98,
      "Ġà¦¨": 99,
      "à¦Ł": 100,
      "à¦Ľ": 101,
      "à¦ĩ": 102,
      "Ġà¦ı": 103,
      "Ġà¦¦": 104,
      "à¦¼à§ĩ": 105,
      "Ġà¦®": 106,
      "à¦ª": 107,
      "Ġà¦¹": 108,
      "à¦¶": 109,
      "à§Ģ": 110,
      "à¦ľ": 111,
      "Ġà¦¤": 112,
      "Ġà¦ķà¦°": 113,
      "à¦Ĺ": 114,
      "à¦·": 115,
      "à¦ĸ": 116,
      "à¦¡": 117,
      "Ġà¦ħ": 118,
      "à¦ļ": 119,
      "à¦¼à¦¾": 120,
      "à¦§": 121,
      "Ġà¦ľ": 122,
      "à¦¹": 123,
      "à¦¥": 124,
      "Ġà¦¯": 125,
      "à¦ĵ": 126,
      "Ġà¦¶": 127,
      "Ġà¦ļ": 128,
      "à¦£": 129,
      "à¦Ĥ": 130,
      "Ġà¦Ĺ": 131,
      "Ġà¦°": 132,
      "à¦Ń": 133,
      "Ġà¦Ń": 134,
      "Ġà¦ıà¦ķ": 135,
      "Ġà¦¹à¦¯": 136,
      "Ġà¦ĵ": 137,
      "Ġà¦¥": 138,
      "Ġà¦ī": 139,
      "Ġà¦²": 140,
      "à¦ģ": 141,
      "à¦«": 142,
      "Ġà¦ªà¦°": 143,
      "Ġà¦Ľ": 144,
      "Ġà¦ĸ": 145,
      "Ġà¦«": 146,
      "Ġà¦¬à¦²": 147,
      "Ġà¦Ĩà¦®": 148,
      "à§Ĥ": 149,
      "à¦ł": 150,
      "Ġà¦¸à¦®": 151,
      "Ġà§": 152,
      "à§ĥ": 153,
      "à§ĩ,": 154,
      "à¦ľà¦¨": 155,
      "à¦°à¦ķ": 156,
      "à¦ĵà¦¯": 157,
      "Ġà¦ıà¦ĩ": 158,
      "Ġà¦ħà¦¨": 159,
      "à¦°à¦¤": 160,
      "Ġà¦ĩ": 161,
      "Ġà¦§": 162,
      "à¦¾à¦ģ": 163,
      "Ġà¦Ĩà¦°": 164,
      "à¦¼à¦¿": 165,
      "à¦Ļ": 166,
      "à¦ĸà¦¨": 167,
      "Ġà¦ľà¦¨": 168,
      "Ġà¦ĺ": 169,
      "à¦®à¦¨": 170,
      "à¦ī": 171,
      "eo": 172,
      "eos": 173,
      "à¦¾à¦Ĥ": 174,
      "à¦ªà¦°": 175,
      "Ġà¦Ĩà¦²": 176,
      "Ġà¦®à¦¨": 177,
      "à§¦": 178,
      "Ġà¦ıà¦ķà¦Ł": 179,
      "à¦¬à¦°": 180,
      "à§Ī": 181,
      "Ġà¦¡": 182,
      "Ġà¦Ł": 183,
      "à¦¤à¦°": 184,
      "Ġà¦Ĩà¦¸": 185,
      "Ġà¦ķà¦¥": 186,
      "à¦°à¦£": 187,
      "?<": 188,
      "Ġà¦ķà¦°à¦¤": 189,
      "Ġà¦¹à¦¬": 190,
      "à¦¾,": 191,
      "Ġà¦¹à¦²": 192,
      "à¦¬à¦¨": 193,
      "à¦ªà¦¨": 194,
      "âĢ": 195,
      "âĢĶ": 196,
      "à¦¨à¦¤": 197,
      "Ġà¦ıà¦°": 198,
      "Ġà¦¸à¦¬": 199,
      "Ġà¦ıà¦¬": 200,
      "à§İ": 201,
      "Ġà¦ħà¦¬": 202,
      "Ġà¦ªà¦¡": 203,
      "Ġ'": 204,
      "Ġà¦Ĩà¦Ľ": 205,
      "Ġà¦§à¦°": 206,
      "à¦ŀ": 207,
      "à¦ı": 208,
      "Ġà¦Ĩà¦Ĺ": 209,
      "à§Į": 210,
      "Ġà¦ķà¦¬": 211,
      "à¦Ŀ": 212,
      "à¦ķà¦°": 213,
      "à¦°à¦¬": 214,
      "Ġà¦®à¦¤": 215,
      "Ġà¦ĵà¦¯": 216,
      "§à§": 217,
      "Ġà¦ķà¦°à¦²": 218,
      "Ġà¦ļà¦²": 219,
      "à¦°à¦®": 220,
      "Ġà¦ıà¦¸": 221,
      "Ġà¦¹à¦¤": 222,
      "Ġà¦Ĩà¦¬": 223,
      "à¦¿,": 224,
      "Ġà§¨": 225,
      "à¦·à¦£": 226,
      "Ġà¦īà¦ª": 227,
      "Ġ(": 228,
      "à¦¶à¦¨": 229,
      "Ġà¦ıà¦ĸà¦¨": 230,
      "Ġà¦¢": 231,
      "à¦ªà¦¤": 232,
      "à¦¯à¦¬": 233,
      "à¦¤à¦¨": 234,
      "à¦¦à¦ķ": 235,
      "Ġà¦¸à¦®à¦¯": 236,
      "Ġà¦¹à¦ļ": 237,
      "Ġà¦ķà¦°à¦Ľ": 238,
      "à¦¼,": 239,
      "à¦ļà¦¨": 240,
      "à¦®à¦¤": 241,
      "à¦¾-": 242,
      "Ġà¦¬à¦¸": 243,
      "à¦ķà¦²": 244,
      "à¦ķà¦Ł": 245,
      "à¦Ĩ": 246,
      "à¦ĺ": 247,
      "à§¦à§": 248,
      "Ġà§§à§": 249,
      "à¦¬à¦²": 250,
      "à¦²à¦ķ": 251,
      "à¦°à¦¦": 252,
      "à¦°à¦¶": 253,
      "Ġà¦ħà¦Ń": 254,
      "à¦®à¦²": 255,
      "Ġà¦ħà¦°": 256,
      "à¦¹à¦®": 257,
      "Ġà¦Ĩà¦²à¦ķ": 258,
      "Ġà¦ıà¦®à¦¨": 259,
      "à¦²à¦¯": 260,
      "Ġà¦Ĩà¦¨": 261,
      "Ġà¦Ĩà¦ªà¦¨": 262,
      "Ġà¦®à¦§": 263,
      "Ġà¦ħà¦¸": 264,
      "à¦°à¦¸": 265,
      "à¦ĸà¦²": 266,
      "à¦ĩà¦¨": 267,
      "Ġà¦¦à¦²": 268,
      "Ġà¦Ĩà¦ľ": 269,
      "à¦¿à¦Ĥ": 270,
      "Ġà¦¸à¦°": 271,
      "à¦²à¦¨": 272,
      "à¦Ľà¦°": 273,
      "Ġà¦Ŀ": 274,
      "à¦ķà¦¤": 275,
      "à¦¼à§ĭ": 276,
      "Ġà¦īà¦¦": 277,
      "à¦¯à¦®": 278,
      "Ġà¦ĺà¦Ł": 279,
      "à¦¯à¦ķ": 280,
      "Ġà¦īà¦ł": 281,
      "Ġà¦ħà¦ª": 282,
      "Ġà¦ł": 283,
      "Ġà¦¸à¦°à¦ķ": 284,
      "à¦¤à¦¬": 285,
      "à¦°à¦¯": 286,
      "à¦°à¦§": 287,
      "à¦°à¦¹": 288,
      "à¦°à¦¥": 289,
      "Ġà¦¬à¦ĩ": 290,
      "à¦¸à¦²": 291,
      "Ġà¦ķà¦®": 292,
      "à§ģà¦ģ": 293,
      "à¦¦à¦¨": 294,
      "à¦¸à¦¬": 295,
      "à¦¤à¦ķ": 296,
      "Ġà¦ıà¦ķà¦ľà¦¨": 297,
      "à¦¯à¦¨": 298,
      "Ġà¦Ĩà¦ĵà¦¯": 299,
      "à¦ĸà¦¤": 300,
      "à§ĩ-": 301,
      "Ġà¦¬à¦²à¦²": 302,
      "Ġà¦¨à¦¯": 303,
      "Ġà§¨à§¦à§": 304,
      "Ġà¦¤à¦ĸà¦¨": 305,
      "Ġà¦Ĩà¦®à¦°": 306,
      "à¦²à¦¤": 307,
      "Ġà¦¬à¦°": 308,
      "Ġà¦¬à¦Ľà¦°": 309,
      "Ġà¦¤à¦¬": 310,
      "Ġà¦¬à¦¨": 311,
      "à¦¬à¦¬": 312,
      "à§ĩ?<": 313,
      "à¦°à¦¥à¦®": 314,
      "à¦Ĺà¦¤": 315,
      "Ġà¦¹à¦ĵà¦¯": 316,
      "à¦·à¦¯": 317,
      "Ġà¦¸à¦¨": 318,
      "Ġà¦ıà¦¤": 319,
      "à¦¨à¦¨": 320,
      "à¦ĩà¦²": 321,
      "à¦ļà¦¯": 322,
      "à§ª": 323,
      "Ġà¦¸à¦¹": 324,
      "Ġà¦ķà¦°à¦¬": 325,
      "à¦®à¦ķ": 326,
      "!<": 327,
      "à¦ĭ": 328,
      "à¦°à¦²": 329,
      "à¦ªà¦ķ": 330,
      "Ġà¦ķà¦ĸà¦¨": 331,
      "Ġà¦ħà¦§": 332,
      "à¦¶à¦ķ": 333,
      "Ġà¦Ĳ": 334,
      "Ġà¦Ĩà¦¶": 335,
      "Ġà¦ıà¦°à¦¶": 336,
      "à¦®à¦°": 337,
      "¯à§": 338,
      "Ġà¦¬à¦¡": 339,
      "à¦°à¦ĩ": 340,
      "Ġà¦ħà¦¬à¦¸": 341,
      "à¦²à¦Ĺ": 342,
      "Ġà¦ħà¦¤": 343,
      "à¦·à¦®à¦¤": 344,
      "Ġà¦Ĩà¦ķ": 345,
      "à¦ĭà¦¤": 346,
      "à§İà¦¸": 347,
      "à¦·à¦ķ": 348,
      "à¦ķà¦¬": 349,
      "Ġà¦Ĩà¦¦": 350,
      "Ġà¦¯à¦ĸà¦¨": 351,
      "à¦°à¦ĵ": 352,
      "à¦¨à¦ķ": 353,
      "à¦ªà¦¦": 354,
      "Ġà¦ıà¦²": 355,
      "à§ĩà¦ģ": 356,
      "à¦¿-": 357,
      "Ġà§©": 358,
      "à¦¸à¦®": 359,
      "à¦ĩà¦¯": 360,
      "Ġà¦Ĩà¦²à¦«": 361,
      "Ġà¦ķà¦¯": 362,
      "à¦¯à¦¬à¦¸": 363,
      "Ġà¦Ĺà¦²": 364,
      "à¦Ĺà¦°": 365,
      "à¦¬à¦ª": 366,
      "à¦¸à¦¨": 367,
      "à¦ıà¦°": 368,
      "Ġà¦°à¦ķ": 369,
      "Ġà¦ªà¦¥": 370,
      "à§¦à§¦": 371,
      "Ġà¦īà¦¤": 372,
      "Ġà¦ıà¦Ł": 373,
      "à¦°à¦ļ": 374,
      "à¦²à¦¬": 375,
      "Ġà¦¬à¦²à¦¤": 376,
      "à¦Łà¦ķ": 377,
      "à§¨": 378,
      "à¦¬à¦¤": 379,
      "à¦¦à¦°": 380,
      "Ġà¦īà¦²": 381,
      "Ġà¦īà¦ļ": 382,
      "à¦¼à§Ģ": 383,
      "Ġà¦ķà¦²": 384,
      "Ġà¦ĵà¦°": 385,
      "à¦¨à¦Ł": 386,
      "Ġà¦®à¦¹": 387,
      "Ġà¦ĺà¦°": 388,
      "Ġà¦ªà¦ķ": 389,
      "Ġà¦Ĺà¦£": 390,
      "à¦ĥ": 391,
      "Ġà¦¸à¦¤": 392,
      "à¦Ľà¦¨": 393,
      "à¦ĩà¦°": 394,
      "Ġà§¨à§¦à§¨": 395,
      "à¦¹à¦¤": 396,
      "à¦ĸà¦ķ": 397,
      "à¦¯à¦¤": 398,
      "Ġà¦¸à¦Ļ": 399,
      "à§ĩ;": 400,
      "Ġà¦ĵà¦ªà¦°": 401,
      "à¦ĩà¦ķ": 402,
      "Ġà¦Ĩà¦¤": 403,
      "Ġà¦¨à¦¤": 404,
      "Ġà¦ĩà¦¤": 405,
      "à§©": 406,
      "à¦°à¦ª": 407,
      "Ġà¦ĺà¦Łà¦¨": 408,
      "à¦¯à¦¬à¦¹": 409,
      "à¦°à¦¨": 410,
      "Ġà¦°à¦¹à¦®": 411,
      "à¦¸à¦ª": 412,
      "à§ĭ,": 413,
      "à§ĩâĢĶ": 414,
      "à¦Ĺà¦¨": 415,
      "à§§": 416,
      "à¦°à¦ľ": 417,
      "à¦®à¦¦": 418,
      "à§¬": 419,
      "à§Ń": 420,
      "Ġà¦īà¦¨": 421,
      "Ġà¦¬à¦¯": 422,
      "à¦·à¦¤": 423,
      "à¦īà¦¨": 424,
      "Ġà¦Ĩà¦¯": 425,
      "Ġà¦ħà¦¬à¦¶": 426,
      "à¦®à¦¯": 427,
      "Ġà¦Ĩà¦ĩà¦¨": 428,
      "Ġà¦ıà¦Ĺ": 429,
      "à¦¼à§ĩ,": 430,
      "Ġà¦¯à¦¦": 431,
      "Ġà§§à§¯à§": 432,
      "à¦¬à¦¸": 433,
      "Ġà¦ħà¦ªà¦°": 434,
      "Ġà¦Ĺà¦¤": 435,
      "Ġà¦¶à¦¤": 436,
      "Ġà¦ķà¦¤": 437,
      "Ġà¦ªà¦¦": 438,
      "Ġà¦ĩà¦¨": 439,
      "Ġà¦ĩà¦ļ": 440,
      "à§İà¦ķ": 441,
      "Ġà¦ªà¦¤": 442,
      "à¦Ĺà¦²": 443,
      "à¦¬à¦ķ": 444,
      "à§ĭà¦ģ": 445,
      "Ġà¦¶à¦¬": 446,
      "Ġà¦Ĩà¦¹à¦®": 447,
      "à¦¦à¦²": 448,
      "Ġà¦¨à¦¦": 449,
      "Ġà¦¶à¦°": 450,
      "Ġà¦¯à¦¤": 451,
      "à¦°à¦Ł": 452,
      "à¦¨à¦¬": 453,
      "à¦¾'": 454,
      "à¦¨à¦ª": 455,
      "à¦ļà¦²": 456,
      "Ġà¦¸à¦Ń": 457,
      "à¦ĩà¦«": 458,
      "Ġà¦¸à¦ķà¦²": 459,
      "Ġ-": 460,
      "Ġà¦ĩà¦¸à¦²": 461,
      "à¦Ńà¦¬": 462,
      "à¦°à¦Ľ": 463,
      "à¦ķà¦¦": 464,
      "Ġà¦ıà¦ĸ": 465,
      "à¦ľà¦¯": 466,
      "à¦¹à¦¸": 467,
      "à¦¤à¦¤": 468,
      "Ġà¦Ľà¦¬": 469,
      "Ġà¦ĩà¦ĸà¦²": 470,
      "Ġà¦ıà¦ķà¦ĩ": 471,
      "Ġà¦īà¦ªà¦°": 472,
      "Ġà¦¬à¦ķ": 473,
      "Ġà¦ļà¦°": 474,
      "à¦®à¦¬": 475,
      "Ġà¦«à¦²": 476,
      "à§Ģ,": 477,
      "à§«": 478,
      "à¦Łà¦¨": 479,
      "à¦°à¦Ń": 480,
      "à¦¸à¦°": 481,
      "Ġà¦ıà¦¦": 482,
      "Ġà§®": 483,
      "Ġà¦īà¦ªà¦¸": 484,
      "Ġà¦Ĩà¦ª": 485,
      "à¦ļà¦ķ": 486,
      "Ġà¦ıà¦ķà¦¬": 487,
      "Ġà¦¬à¦¹": 488,
      "Ġà¦¶à¦ķ": 489,
      "Ġà¦¸à¦ķ": 490,
      "à¦¸à¦¦": 491,
      "Ġà¦Ĺà¦°": 492,
      "Ġà¦Ĩà¦¸à¦²": 493,
      "Ġà¦Ĩà¦¸à¦Ľ": 494,
      "à¦¸à¦ķ": 495,
      "à¦Ŀà¦¤": 496,
      "à¦ħ": 497,
      "Ġà¦¸à¦¦": 498,
      "à¦§à¦¬": 499,
      "Ġà¦Ńà¦¯": 500,
      "à¦¨à¦Ń": 501,
      "à¦¤à¦®": 502,
      "à¦¸à¦¹": 503,
      "Ġà¦¶à¦¹": 504,
      "Ġà¦°à¦¯": 505,
      "à¦¨à¦¦": 506,
      "à¦¹à¦«": 507,
      "Ġà¦ĵà¦ł": 508,
      "à¦ľà¦°": 509,
      "Ġà¦ıà¦¸à¦¬": 510,
      "à¦ķà¦ľà¦¨": 511,
      "Ġà¦¤à¦¥": 512,
      "Ġà¦¬à¦²à¦Ľ": 513,
      "Ġà¦ķà¦£": 514,
      "à¦ıà¦¨à¦ª": 515,
      "à¦¨à¦°": 516,
      "à¦Ĺà¦®": 517,
      "Ġà¦ħà¦¥": 518,
      "Ġà§¨à§¦à§¨à§ª": 519,
      "Ġà¦ªà¦²": 520,
      "),": 521,
      "à¦§à¦¨": 522,
      "à¦īà¦ķ": 523,
      "Ġà¦ĵà¦¬": 524,
      "à¦¨à¦¯": 525,
      "Ġà¦Ńà¦°": 526,
      "Ġà¦Ĩà¦¸à¦¤": 527,
      "à¦¾?<": 528,
      "Ġà¦ľà¦¸": 529,
      "à¦°à¦¹à¦£": 530,
      "Ġà¦¤à¦°": 531,
      "Ġà¦ľà¦®": 532,
      "à¦ķà¦Ń": 533,
      "Ġà¦®à¦°": 534,
      "Ġà§¨à§¦à§§à§": 535,
      "Ġà¦ľà¦¡": 536,
      "à¦ĩà¦¡": 537,
      "Ġà¦²à¦ķ": 538,
      "Ġà§§": 539,
      "à¦¾;": 540,
      "Ġ:": 541,
      "à¦¨à¦ľ": 542,
      "à¦¬à¦¦": 543,
      "Ġà¦¹à¦ł": 544,
      "Ġà¦ľà¦²": 545,
      "Ġà¦ıà¦¨": 546,
      "Ġà¦¤à¦¤": 547,
      "à¦ıà¦¸": 548,
      "à¦¨à¦Ĺà¦°": 549,
      "à¦®à¦¸": 550,
      "à¦ĩà¦¬": 551,
      "à¦¥à¦¨": 552,
      "à§Ģ-": 553,
      "à¦ķà¦¨": 554,
      "à¦²à¦²": 555,
      "Ġà¦¦à¦°à¦ľ": 556,
      "Ġà¦Ĺà¦¡": 557,
      "à§®": 558,
      "à¦īà¦°": 559,
      "à§ģ-": 560,
      "à¦łà¦ķ": 561,
      "à¦¨à¦®à¦¨": 562,
      "à¦¯à¦ĩ": 563,
      "Ġà§ª": 564,
      "Ġà¦ĩà¦¥": 565,
      "à¦¯à¦¸": 566,
      "Ġà§«": 567,
      "à¦°à¦«": 568,
      "à¦¿?<": 569,
      "à¦¯à¦°": 570,
      "à¦§à¦ķ": 571,
      "à¦«à¦²": 572,
      "à§Įà¦ģ": 573,
      "à¦°à¦ªà¦¤": 574,
      "Ġà¦¹à¦ķ": 575,
      "à¦Łà¦²": 576,
      "à¦ĵà¦¦": 577,
      "à¦¬à¦§": 578,
      "Ġà¦¸à¦ļ": 579,
      "Ġà¦¦à¦¶": 580,
      "à¦·à¦®": 581,
      "Ġà¦ħà¦Ĺ": 582,
      "à¦¼à¦¾,": 583,
      "Ġà¦¯à¦¥": 584,
      "Ġà¦īà§İà¦¸": 585,
      "à¦¢": 586,
      "Ġà¦ĸà¦¬à¦°": 587,
      "à¦®à¦ķà¦°": 588,
      "Ġà¦Ĩà¦§": 589,
      "à§¦à§¦à§¦": 590,
      "à¦¹à¦²": 591,
      "Ġà¦ĵà¦ĩ": 592,
      "Ġà¦¨à¦ĵà¦¦": 593,
      "à¦¾âĢĶ": 594,
      "à¦¶à¦¬": 595,
      "à¦·à¦¦": 596,
      "à¦¹à¦¬": 597,
      "à¦łà¦¨": 598,
      "à¦°à¦ľà¦¨": 599,
      "à¦¿à¦ĥ": 600,
      "à¦²à¦Ł": 601,
      "Ġà¦ĩà¦īà¦¨": 602,
      "Ġà¦Ĩà¦¸à¦¬": 603,
      "Ġà¦¸à¦¦à¦¸": 604,
      "Ġà¦Ľà¦¡": 605,
      "Ġà¦ķà¦ĸà¦¨à¦ĵ": 606,
      "à¦ĩà¦Ł": 607,
      "à§ĭ-": 608,
      "Ġà¦§à¦°à¦¨": 609,
      "Ġà¦ħà¦¥à¦ļ": 610,
      "à¦¨à¦¸": 611,
      "Ġà¦īà¦łà¦²": 612,
      "Ġà§®à§Ń": 613,
      "à¦¿âĢĶ": 614,
      "Ġà§©à§¬": 615,
      "Ġà¦ħà¦¦": 616,
      "Ġà¦Ĩà¦¹à¦®à¦¦": 617,
      "à¦¤à¦²": 618,
      "à¦¼à§ģ": 619,
      "Ġà¦ħà¦ķ": 620,
      "Ġà§¨à§¦": 621,
      "à¦¸à¦²à¦®": 622,
      "Ġà¦°à¦ķà¦®": 623,
      "Ġà¦Ĺà¦£à¦®": 624,
      "à¦°à¦Ĺ": 625,
      "à§ĭ.": 626,
      "à¦ĸà¦¬": 627,
      "Ġà¦¸à¦®à¦¸": 628,
      "Ġà¦¦à¦°à¦ķ": 629,
      "Ġà¦¦à¦¶à¦ķ": 630,
      "Ġà¦ıà¦ķà¦¦": 631,
      "Ġà¦¸à¦¬à¦ļ": 632,
      "à§§à§¦à§¦à§¦": 633,
      "à§ĩ'": 634,
      "à¦ķà¦ķ": 635,
      "à§ģ,": 636,
      "Ġà¦ļà¦²à¦Ľ": 637,
      "Ġà¦¬à¦ĩà¦¯": 638,
      "..": 639,
      "à¦°à¦ªà¦°": 640,
      "à¦¯à¦¦": 641,
      "Ġà¦¬à¦Ļ": 642,
      "Ġà¦ªà¦¦à¦ķ": 643,
      "Ġà¦¦à¦°": 644,
      "à¦ľà¦¤": 645,
      "à¦¼;": 646,
      "à¦®à¦ļ": 647,
      "à¦¶à¦Ł": 648,
      "à¦ĸà¦Ľ": 649,
      "Ġà¦Ĩà¦¬à¦¦": 650,
      "Ġà¦Ĩà¦¡": 651,
      "à¦ĵà¦¤": 652,
      "Ġà¦Ĺà¦¬": 653,
      "Ġà¦¸à¦¹à¦ľ": 654,
      "Ġà¦¨à¦¬": 655,
      "Ġà¦¨à¦ľà¦°": 656,
      "Ġà§¬": 657,
      "Ġà¦Ńà¦¬à¦¨": 658,
      "à¦ľà¦Ł": 659,
      "Ġà¦ħà¦«": 660,
      "Ġà¦īà§İ": 661,
      "Ġà¦Ĩà¦°à¦ĵ": 662,
      "à¦Ĩà¦ĩ": 663,
      "à¦¤à¦Ń": 664,
      "à¦®à¦ª": 665,
      "Ġà¦ıà¦Ń": 666,
      "à¦§à¦¤": 667,
      "à¦°à¦¹à¦°": 668,
      "Ġà¦Ĩà¦¸à¦¨": 669,
      "à¦®à¦§": 670,
      "Ġà¦®à¦ľ": 671,
      "à¦ľà¦®": 672,
      "à¦¨à¦²": 673,
      "à¦Łà¦¤": 674,
      "Ġà¦¦à¦ĸà¦²": 675,
      "à¦·à¦°": 676,
      "Ġà¦ħà¦Ļ": 677,
      "Ġà¦ļà¦²à¦¤": 678,
      "à¦ķà¦®": 679,
      "à¦¼âĢĶ": 680,
      "Ġà¦ħà¦²": 681,
      "à¦ıà¦®": 682,
      "Ġà¦ļà¦²à¦ļ": 683,
      "à¦Ĩà¦¯": 684,
      "à¦¼-": 685,
      "à¦ªà¦·": 686,
      "à¦ªà¦¡": 687,
      "Ġà¦Ĺà¦Ń": 688,
      "Ġà¦ĺà¦¨": 689,
      "Ġà¦¶à¦¹à¦°": 690,
      "Ġà¦ħà¦¶": 691,
      "Ġà¦ľà¦¯": 692,
      "Ġà¦ªà¦°à¦¬à¦°": 693,
      "Ġà¦ıà¦°à¦ªà¦°": 694,
      "à¦¿à¦ģ": 695,
      "Ġà¦¸à¦ŀ": 696,
      "à¦Łà¦°": 697,
      "Ġà¦¹à¦¨": 698,
      "à¦ĩà¦¤": 699,
      "Ġà¦¬à¦²à¦¬": 700,
      "Ġà¦Ĩà¦®à¦²": 701,
      "Ġà¦ķà¦¤à¦Ł": 702,
      "à¦¯à¦¯": 703,
      "à¦ķà¦¶": 704,
      "à§ĭ?<": 705,
      "Ġà¦®à¦Ļ": 706,
      "à¦¶à¦Ĺ": 707,
      "Ġà¦ľà¦°": 708,
      "Ġà¦ľà¦¬": 709,
      "à¦£à¦¤": 710,
      "à¦īà¦Ł": 711,
      "Ġà§¨à§¦à§¦à§": 712,
      "à¦ľà¦¨à¦ķ": 713,
      "Ġà¦ĩà¦¶": 714,
      "Ġà¦ıà¦ĸà¦¨à¦ĵ": 715,
      "à¦¿'": 716,
      "Ġà¦¦à¦ķ": 717,
      "à¦Ĺà¦Ľ": 718,
      "à¦Ļà¦¨": 719,
      "Ġà¦¸à¦¬à¦ķ": 720,
      "à§§à§": 721,
      "à¦¬à¦¶": 722,
      "à¦ĩà¦Ľ": 723,
      "à¦ªà¦Ł": 724,
      "à¦Ĺà¦£": 725,
      "à¦«à¦ķ": 726,
      "à¦¼?<": 727,
      "Ġà¦¬à¦¦à¦²": 728,
      "à¦¹à¦¯": 729,
      "Ġà¦ķà¦·": 730,
      "Ġà§Ń": 731,
      "à¦īà¦²": 732,
      "à¦¬à¦¯": 733,
      "à¦¦à¦®": 734,
      "à¦Ĺà¦¬": 735,
      "à¦¿;": 736,
      "Ġà¦®à¦¸": 737,
      "Ġà¦¡à¦²": 738,
      "Ġà¦ıà¦®à¦¨à¦ķ": 739,
      "Ġà¦Ĩà¦Łà¦ķ": 740,
      "Ġà§¦": 741,
      "à¦°à¦ķà¦²": 742,
      "à¦¯à¦Ł": 743,
      "à¦²à¦Ľ": 744,
      "à¦¦à¦ª": 745,
      "à¦¦à¦¶": 746,
      "Ġà¦Ĩà¦¹": 747,
      "à¦¹à¦°": 748,
      "à§¯": 749,
      "Ġà¦®à¦ŀ": 750,
      "Ġà¦ħà¦ľ": 751,
      "Ġà¦«à¦°": 752,
      "Ġà¦ĺà¦£": 753,
      "Ġà§§à§¨": 754,
      "Ġà¦Ĩà¦ĩ": 755,
      "Ġà§§à§¯à§®": 756,
      "à¦¨à¦ĩ": 757,
      "Ġà¦¸à¦ª": 758,
      "Ġà¦ľà¦Ĺà¦¤": 759,
      "à¦«à¦°": 760,
      "Ġà¦·": 761,
      "à¦ķà¦¸": 762,
      "à¦²à¦®": 763,
      "à¦¶à¦²": 764,
      "à¦ľà¦²": 765,
      "à¦°à¦¦à¦°": 766,
      "à¦°à¦Ĺà¦¤": 767,
      "à¦¨à¦ĵ": 768,
      "Ġà¦¹à¦°": 769,
      "Ġà¦ıà¦ķà¦®": 770,
      "à¦īà¦¦": 771,
      "Ġà¦ķà¦ª": 772,
      "à¦¦à¦Ł": 773,
      "Ġà¦Ĩà¦ļ": 774,
      "Ġà¦ıà¦®": 775,
      "à¦¶à¦¤": 776,
      "Ġà¦¤à§İà¦ķ": 777,
      "à¦ļà¦°": 778,
      "à¦¯à¦¥": 779,
      "à¦Ĺà¦łà¦¨": 780,
      "à¦°à¦°": 781,
      "à¦¿)": 782,
      "à¦ľà¦ķ": 783,
      "à¦Ĺà¦¬à¦¨": 784,
      "Ġà¦°à¦Ļ": 785,
      "à¦¯à¦¤à¦®": 786,
      "Ġà¦Ĩà¦Ł": 787,
      "Ġà¦ıà¦Ľ": 788,
      "à¦¹à¦ķ": 789,
      "Ġà¦Ńà¦¬": 790,
      "Ġà¦§à¦¨": 791,
      "à¦°à¦®à¦£": 792,
      "à¦ĺà¦°": 793,
      "Ġà¦Ĩà¦ľà¦ķ": 794,
      "à¦¤à¦¦": 795,
      "à¦Ĺà¦²à¦¬": 796,
      "Ġà¦ħà¦®": 797,
      "Ġà¦ıà¦¤à¦Ł": 798,
      "Ġà¦ķà¦ł": 799,
      "Ġà¦ĩà¦¯": 800,
      "Ġà¦ĩà¦²": 801,
      "Ġà§©à§¦": 802,
      "à¦¨à¦®": 803,
      "Ġà¦ķà¦ķ": 804,
      "Ġà¦ľà¦¨à¦ª": 805,
      "à¦Ĩà¦®": 806,
      "Ġà¦Ĩà¦¨à¦¨": 807,
      "à¦²à¦ª": 808,
      "à¦¬à¦¹": 809,
      "à¦®à¦Ĺ": 810,
      "à¦ªà¦¸": 811,
      "Ġà¦Ľà¦¯": 812,
      "Ġà¦īà¦ªà¦ķ": 813,
      "Ġà¦ķà¦¨": 814,
      "à¦®à¦¹": 815,
      "à¦¸à¦Ļ": 816,
      "Ġà¦Ŀà¦¡": 817,
      "Ġà¦īà¦łà¦¤": 818,
      "à¦¤à¦¶": 819,
      "à¦¸à¦Ń": 820,
      "à¦§à¦¹à¦¯": 821,
      "Ġà¦īà¦¡": 822,
      "Ġà¦¦à¦²à¦Ł": 823,
      "à¦¾!<": 824,
      "à§ĭâĢĶ": 825,
      "Ġà¦ªà¦¶": 826,
      "Ġà§§à§§": 827,
      "à¦¯à¦ķà¦°": 828,
      "à¦ķà¦¥": 829,
      "à¦Łà¦Ĺ": 830,
      "à¦ªà¦¥": 831,
      "Ġà¦°à¦ĵ": 832,
      "à¦ŀà¦¤": 833,
      "Ġà¦īà¦ªà¦ľ": 834,
      "Ġà§§à§®": 835,
      "à¦®à¦Ł": 836,
      "à¦¸à¦Ł": 837,
      "Ġà¦ıà¦¡": 838,
      "Ġà¦ıà¦ľà¦¨": 839,
      "Ġà§§à§¦": 840,
      "à¦¨à¦Ĺ": 841,
      "Ġà¦¤à¦¦à¦¨": 842,
      "Ġà¦ħà¦¸à¦®": 843,
      "à¦ķà¦ĩ": 844,
      "à¦¦à¦¤": 845,
      "Ġà¦ļà¦ķ": 846,
      "Ġà¦¸à¦¹à¦¯": 847,
      "Ġà¦ĭ": 848,
      "à§ģà¦ĥ": 849,
      "à¦¸à¦¤": 850,
      "Ġà¦Ĩà¦«": 851,
      "à¦ľà¦¬": 852,
      "Ġà¦Ńà¦Ļ": 853,
      "Ġà¦ªà¦°à¦ĵ": 854,
      "à¦°à¦ķà¦®": 855,
      "Ġà¦¤à¦ĸà¦¨à¦ĩ": 856,
      "à¦²à¦¦": 857,
      "à¦¦à¦¯": 858,
      "Ġà¦¨à¦¨": 859,
      "Ġà¦¸à¦®à¦°": 860,
      "Ġà¦īà¦ªà¦¹": 861,
      "à¦¨à¦¶à¦¨": 862,
      "à¦¯à¦ª": 863,
      "à¦¤à¦ĩ": 864,
      "à¦®à¦ľ": 865,
      "Ġà¦¤à¦²": 866,
      "à¦Ĺà¦¡": 867,
      "Ġà¦ļà¦®à¦ķ": 868,
      "Ġà¦ıà¦¸à¦®à¦¯": 869,
      "à¦¤à¦¬à¦¤": 870,
      "à¦¶à¦¯": 871,
      "à¦ļà¦¤": 872,
      "Ġà¦ļà¦Ł": 873,
      "Ġà¦ĵà¦¦": 874,
      "Ġà¦²à¦¡": 875,
      "à¦ĺà¦¨": 876,
      "Ġà¦Ĭ": 877,
      "à¦ķà¦¡": 878,
      "à¦¦à¦ªà¦¤": 879,
      "Ġà¦¨à¦ľ": 880,
      "à¦Ĺà¦ľ": 881,
      "à¦Ŀà¦ĸ": 882,
      "à¦Ŀà¦¡": 883,
      "Ġà§§à§¯à§¯à§": 884,
      "Ġà¦°à¦ĵà¦¶à¦¨": 885,
      "à¦°à¦ĸ": 886,
      "à¦¬à¦ľà¦¨": 887,
      "à¦Łà¦¬à¦²": 888,
      "à¦ªà¦£": 889,
      "Ġà¦ļà¦¤": 890,
      "à¦¤à¦°à¦¦": 891,
      "Ġà¦ħà¦¬à¦¸à¦°": 892,
      "à¦ķà¦Ľ": 893,
      "Ġà¦ķà¦Ł": 894,
      "à¦Łà¦Ľ": 895,
      "à¦§à¦°": 896,
      "Ġà¦ĵà¦ķ": 897,
      "Ġà¦Ĩà¦°à¦²": 898,
      "Ġà¦Ĩà¦²à¦®": 899,
      "Ġà¦¸à¦¹à¦ķ": 900,
      "à¦ıà¦¸à¦¸": 901,
      "Ġà¦īà§İà¦ª": 902,
      "à¦¾)": 903,
      "à¦²à¦Ń": 904,
      "Ġà¦Ĩà¦Ļ": 905,
      "à¦ĩà¦¸": 906,
      "Ġà¦ıà¦¤à¦ķ": 907,
      "à¦ļà¦Ł": 908,
      "à¦¥à¦ķ": 909,
      "à¦¥à¦Ĺ": 910,
      "Ġà¦¬à¦¸à¦¤": 911,
      "à¦¸à¦®à¦¯": 912,
      "Ġà¦ĭà¦£": 913,
      "Ġà¦ªà¦ŀ": 914,
      "à¦ĩà¦®": 915,
      "à¦·à¦Ł": 916,
      "Ġà¦°à¦ļà¦¨": 917,
      "à¦Ńà¦ķ": 918,
      "Ġà¦ıà¦ĩà¦ļ": 919,
      "Ġà¦ĩà¦Ń": 920,
      "Ġà¦¬à¦¸à¦²": 921,
      "Ġà§§à§¯": 922,
      "Ġà¦Ŀà¦°": 923,
      "Ġà¦ħà¦¥à¦¬": 924,
      "à¦¨à¦¶": 925,
      "Ġà¦¸à¦¤à¦°": 926,
      "à¦¦à¦£": 927,
      "Ġà¦¦à¦ª": 928,
      "Ġà¦ļà¦¡": 929,
      "Ġà¦Ĩà¦Ĺà¦¸": 930,
      "à¦Ĩà¦°": 931,
      "à¦¤à¦Ł": 932,
      "Ġà¦¦à¦«": 933,
      "à¦ĵà¦¨": 934,
      "Ġà¦°à¦ŀ": 935,
      "Ġà¦«à¦¡": 936,
      "Ġà¦ıà¦¤à¦¦": 937,
      "à¦¬à¦¡": 938,
      "à¦¬à¦¤à¦¨": 939,
      "Ġà¦ķà¦ĩ": 940,
      "à¦ľà¦¸": 941,
      "Ġà¦ħà¦Ł": 942,
      "Ġà¦°à¦¹à¦¸": 943,
      "Ġà¦ıà¦ķà¦¥": 944,
      "à§¨à§¦à§": 945,
      "Ġà¦¯à¦¤à¦Ł": 946,
      "...": 947,
      "Ġ,": 948,
      "à¦¨à¦ľà¦¨": 949,
      "Ġà¦¦à¦®": 950,
      "Ġà¦ħà¦ŀ": 951,
      "à¦īà¦ľ": 952,
      "Ġà¦īà§İà¦¸à¦°": 953,
      "Ġà¦ķà¦¸à¦¬": 954,
      "Ġà¦¬à¦¦": 955,
      "Ġà¦ªà¦Ľà¦¨": 956,
      "à¦ľà¦¦": 957,
      "à¦¹à¦¨": 958,
      "à¦¹à¦¹": 959,
      "Ġà¦°à¦ª": 960,
      "Ġà¦īà¦ªà¦¨": 961,
      "Ġà§¯": 962,
      "Ġà¦ħà¦¨à¦²": 963,
      "Ġà¦ĩà¦®": 964,
      "Ġà¦ħà¦¬à¦¦": 965,
      "Ġà¦Ĺà¦£à¦¤à¦¨": 966,
      "à§ĩ!<": 967,
      "à¦ķà¦¶à¦¨": 968,
      "Ġà¦ªà¦¯": 969,
      "Ġà¦īà¦ĸ": 970,
      "à¦«à¦¤": 971,
      "Ġà¦ĸà¦°à¦ļ": 972,
      "à¦¤à¦°à¦°": 973,
      "Ġà¦¬à¦ĩà¦Ł": 974,
      "Ġà¦®à¦¸à¦ľ": 975,
      "Ġà§¦à§©": 976,
      "à¦¬à¦Ľ": 977,
      "Ġà¦¨à¦ķà¦²": 978,
      "Ġà¦ıà¦ľ": 979,
      "Ġà¦®à¦°à¦¦": 980,
      "à¦¶à¦ĩ": 981,
      "Ġà¦ĩà¦īà¦°": 982,
      "à¦īà¦¯": 983,
      "à¦¨à¦¤à¦®": 984,
      "Ġà¦ħà¦¬à¦§": 985,
      "Ġà¦īà¦ªà¦¦": 986,
      "Ġà¦ħà¦ªà¦¬": 987,
      "à¦ĭà¦¤à¦ķ": 988,
      "Ġà§¨à§¦à§§à§ª": 989,
      "à¦²à¦°": 990,
      "à¦¬à¦ĩ": 991,
      "à¦¸à¦°à¦ķ": 992,
      "à¦ĩà¦Ń": 993,
      "à¦¹à¦°à¦£": 994,
      "à¦Ńà¦¬à¦¤": 995,
      "Ġà¦ĵà¦ª": 996,
      "Ġà¦ľà¦¨à¦Ĺà¦£": 997,
      "à¦¬à¦°à¦£": 998,
      "à¦ıà¦ĩ": 999,
      "Ġà§§à§«": 1000,
      "Ġà§¨à§¦à§¨à§©": 1001,
      "Ġà¦¦à¦¶à¦®": 1002,
      "à¦®à¦£": 1003,
      "à¦¦à¦¬": 1004,
      "Ġà¦ªà¦²à¦ķ": 1005,
      "Ġà¦Ĩà¦ķà¦°": 1006,
      "à¦ĩà¦¦": 1007,
      "à¦ĩà¦ľ": 1008,
      "à¦ªà¦¯": 1009,
      "à¦Ĺà¦ŀ": 1010,
      "Ġà¦īà¦Ĺ": 1011,
      "Ġà¦²à¦®": 1012,
      "Ġà¦ĩà¦īà¦ķ": 1013,
      "Ġà¦§à¦°à¦²": 1014,
      "Ġà¦®à¦¤à¦ĩ": 1015,
      "Ġà¦¯à¦¤à¦¦": 1016,
      "Ġà¦Ī": 1017,
      "à¦¬à¦Ľà¦°": 1018,
      "Ġà¦¸à¦«à¦²": 1019,
      "à¦¶à¦°": 1020,
      "à¦¥à¦°": 1021,
      "à¦Ńà¦°": 1022,
      "Ġà¦ªà¦°à¦¦": 1023,
      "Ġà¦¸à¦®à¦¨": 1024,
      "Ġà¦ıà¦®à¦¨à¦Ł": 1025,
      "Ġà¦¬à¦ĩà¦®": 1026,
      "Ġà¦Ĩà¦¶à¦Ļ": 1027,
      "à¦°à¦ļà¦£": 1028,
      "à§¨à§¦": 1029,
      "Ġà§¨à§¦à§§à§®": 1030,
      "à¦¨à¦¹": 1031,
      "à¦ķà¦°à¦£": 1032,
      "à¦²à¦¸": 1033,
      "à¦¼'": 1034,
      "Ġà¦ķà¦²à¦ķ": 1035,
      "à¦¦à¦¦": 1036,
      "Ġà¦¨à¦·": 1037,
      "à¦Łà¦«": 1038,
      "Ġà¦°à¦ĩà¦²": 1039,
      "Ġà¦ªà¦°à¦ªà¦°": 1040,
      "Ġà¦Ĩà¦®à¦¦": 1041,
      "Ġà¦§à¦°à¦¤": 1042,
      "Ġà¦Ĩà¦°à¦¬": 1043,
      "Ġà¦ĩà¦¨à¦¸": 1044,
      "Ġà¦¸à¦«": 1045,
      "à¦¸à¦°à¦£": 1046,
      "Ġà¦Ĩà¦¹à¦¸": 1047,
      "Ġà¦¨à¦¡": 1048,
      "à¦Łà¦¬": 1049,
      "à¦ĸà¦¯": 1050,
      "à¦¥à¦²": 1051,
      "Ġà¦Ĺà¦®": 1052,
      "Ġà¦°à¦¬": 1053,
      "Ġà¦ıà¦ķà¦¶": 1054,
      "à¦ıà¦ķà¦Ł": 1055,
      "à¦°à¦¸à¦Ļ": 1056,
      "Ġà¦¸à¦¹à¦¸": 1057,
      "Ġà§§à§¯à§Ń": 1058,
      "Ġà¦ıà¦ĩà¦ļà¦ıà¦¸à¦¸": 1059,
      "à§ĩ)": 1060,
      "à¦ķà¦ļ": 1061,
      "Ġà¦ķà¦¬à¦°": 1062,
      "à¦®à¦¡": 1063,
      "à¦¸à¦ĵ": 1064,
      "Ġà¦Ĩà¦ĸ": 1065,
      "Ġà¦Ĩà¦ĩà¦¯": 1066,
      "Ġà¦®à¦¡": 1067,
      "à¦ľà¦¶": 1068,
      "à¦£à¦¨": 1069,
      "Ġà¦ľà¦¨à¦¸": 1070,
      "à¦ĺà¦¦": 1071,
      "Ġà¦ħà¦¸à¦¹": 1072,
      "Ġà¦¦à¦²à¦Ĺ": 1073,
      "Ġà¦Ĩà¦ĩà¦¨à¦ľ": 1074,
      "',": 1075,
      "à¦¯à¦ĵ": 1076,
      "à¦¤à¦ľ": 1077,
      "Ġà¦Ĩà¦¹à¦¤": 1078,
      "Ġà¦¨à¦ķà¦¶": 1079,
      "Ġà¦ıà¦Ĩà¦ĩ": 1080,
      "Ġà¦¤à¦°à¦¬": 1081,
      "à¦Ĺà¦ķ": 1082,
      "à¦ĸà¦°": 1083,
      "à¦¼à¦¾-": 1084,
      "Ġà¦ľà¦Ĺà¦¨": 1085,
      "Ġà¦Ĺà¦łà¦¨": 1086,
      "Ġà¦ĵà¦Ń": 1087,
      "Ġà¦īà¦ľ": 1088,
      "Ġà¦ļà¦²à¦¬": 1089,
      "Ġà¦¬à¦¸à¦¬": 1090,
      "Ġà§§à§©": 1091,
      "Ġà§¨à§¦à§¨à§¨": 1092,
      "Ġà¦īà§İà¦¸à¦¬": 1093,
      "à¦¤à¦ª": 1094,
      "à¦¤à¦ĵ": 1095,
      "à¦²à¦ľ": 1096,
      "à¦²à¦«": 1097,
      "à¦®à¦ĵ": 1098,
      "Ġà¦¨à¦ķ": 1099,
      "à¦Łà¦ª": 1100,
      "à¦Ľà¦¤": 1101,
      "Ġà¦ıà¦ª": 1102,
      "à§Ģ'": 1103,
      "à¦ľà¦§": 1104,
      "à¦¡à¦²": 1105,
      "Ġà¦ļà¦°à¦®": 1106,
      "Ġà¦°à¦«": 1107,
      "Ġà¦²à¦Ļ": 1108,
      "Ġà¦ĩà¦ī": 1109,
      "à¦ıà¦«": 1110,
      "à¦Ĩà¦ª": 1111,
      "à¦Ĩà¦ªà¦¨": 1112,
      "Ġà§§à§ª": 1113,
      "Ġà¦īà¦łà¦Ľ": 1114,
      "à§İà¦¸à¦ķ": 1115,
      "Ġà§§à§¯à§¬": 1116,
      "à§§à§¯à§": 1117,
      "Ġà¦Ķ": 1118,
      "à¦°à¦°à¦«": 1119,
      "à¦ķà¦ĵ": 1120,
      "à¦®à¦¶": 1121,
      "à§ĭ;": 1122,
      "à¦¸à¦«": 1123,
      "Ġà¦Ĩà¦ĺ": 1124,
      "à¦ĩà¦ī": 1125,
      "Ġà¦¹à¦ľ": 1126,
      "à¦ĸà¦Ł": 1127,
      "Ġà¦Ĺà¦¤à¦ķ": 1128,
      "Ġà¦īà¦ķ": 1129,
      "Ġà¦§à¦¸": 1130,
      "Ġà¦Ĩà¦¸à¦°": 1131,
      "Ġà¦ħà¦¬à¦ľ": 1132,
      "à¦ıà¦¨": 1133,
      "Ġà¦Ĩà¦¬à¦¹": 1134,
      "Ġà¦īà¦ªà¦®à¦¹": 1135,
      "à¦Ĩà¦²": 1136,
      "Ġà¦ıà¦ķà¦ľà¦¨à¦ķ": 1137,
      "Ġà¦īà¦²à¦Ł": 1138,
      "Ġà¦Ĭà¦°": 1139,
      "à¦¬à¦Ń": 1140,
      "à¦¸à¦¸à¦¹": 1141,
      "Ġà¦¨à¦Ń": 1142,
      "à¦Łà¦¸": 1143,
      "à¦¼à§ĩ-": 1144,
      "à§Ģ?<": 1145,
      "à¦Ńà¦¯": 1146,
      "Ġà¦Ńà¦¦": 1147,
      "Ġà¦ĩà¦«": 1148,
      "Ġà¦ĩà¦¸à¦°": 1149,
      "Ġà¦ľà¦¨à¦¤": 1150,
      "Ġà¦īà¦ªà¦²à¦ķ": 1151,
      "Ġà¦ħà¦ªà¦®": 1152,
      "à¦ªà¦ķà¦¥": 1153,
      "Ġà¦Ĩà¦ķà¦¬à¦°": 1154,
      "à¦ĸà¦ķà¦¦": 1155,
      "à§¨à§¦à§¨": 1156,
      "à¦¬à¦ľ": 1157,
      "Ġà¦¬à¦ľ": 1158,
      "Ġà¦®à¦¯": 1159,
      "Ġà¦¹à¦¸": 1160,
      "à¦Ĺà¦¦": 1161,
      "Ġà¦ħà¦¯": 1162,
      "Ġà¦¯à¦¨": 1163,
      "Ġà¦°à¦¸": 1164,
      "Ġà¦ıà¦ķà¦¸": 1165,
      "à¦¤à¦°à¦£": 1166,
      "à¦ĺà¦Ł": 1167,
      "à¦°à¦¸à¦¨": 1168,
      "à¦¾.": 1169,
      "à¦°à¦¬à¦°": 1170,
      "à¦ķà¦Ĺ": 1171,
      "à¦®à¦°à¦£": 1172,
      "Ġà¦¸à¦ł": 1173,
      "Ġà¦ªà¦£": 1174,
      "à¦¸à¦Ľ": 1175,
      "à¦ªà¦²": 1176,
      "à¦Ĺà¦Ł": 1177,
      "à¦¡à¦¨": 1178,
      "Ġà¦ħà¦¬à¦°": 1179,
      "à¦£à¦¦": 1180,
      "Ġà¦īà¦ĩà¦ķ": 1181,
      "à¦«à¦¸": 1182,
      "Ġà¦ĸà¦¡": 1183,
      "à¦łà¦¸": 1184,
      "à¦¾à¦ģ,": 1185,
      "Ġà¦ıà¦°à¦®à¦§": 1186,
      "à¦°à¦¬à¦²": 1187,
      "Ġà§¨à§ª": 1188,
      "à¦·à¦ķà¦¦": 1189,
      "à¦¼à§Ģ,": 1190,
      "Ġà§§à§¯à§ª": 1191,
      "à¦¿.": 1192,
      "à¦®à¦®": 1193,
      "Ġà¦¸à¦²": 1194,
      "Ġà¦Ĩà¦Ń": 1195,
      "Ġà¦Ĩà¦ĸà¦¤": 1196,
      "à¦ĩà¦¶": 1197,
      "Ġà¦¦à¦¯": 1198,
      "Ġà¦¦à¦®à¦¨": 1199,
      "Ġà¦®à¦£": 1200,
      "Ġà¦ľà¦Ł": 1201,
      "Ġà¦ľà¦Ļ": 1202,
      "à¦Ńà¦Ļ": 1203,
      "Ġà¦ıà¦ķà¦ķ": 1204,
      "Ġà¦ĵà¦ĸ": 1205,
      "Ġà¦²à¦ľ": 1206,
      "Ġà¦ĩà¦¦": 1207,
      "Ġà¦ĩà¦Ł": 1208,
      "Ġà§¨à§®": 1209,
      "Ġà¦ıà¦®à¦¨à¦ĩ": 1210,
      "Ġà¦ĺà¦°à¦Ł": 1211,
      "Ġà¦Ĩà¦ªà¦²": 1212,
      "Ġà¦Ĩà¦ļà¦°à¦£": 1213,
      "à¦²à¦ĵ": 1214,
      "à¦¬à¦£": 1215,
      "Ġà¦ķà¦¦": 1216,
      "à¦®à¦ĩ": 1217,
      "Ġà¦¬à¦Ł": 1218,
      "Ġà¦Ĩà¦¨à¦¤": 1219,
      "à¦Łà¦Ń": 1220,
      "Ġà¦ıà¦¶": 1221,
      "Ġà¦®à¦¶": 1222,
      "à¦¶à¦ª": 1223,
      "à¦·à¦ķà¦°": 1224,
      "Ġà¦īà§İà¦ķ": 1225,
      "Ġà¦ĸà¦¯": 1226,
      "à¦ľà¦¨à¦ĩ": 1227,
      "Ġà¦ħà¦¬à¦®": 1228,
      "Ġà§¨à§§": 1229,
      "Ġà¦īà¦ªà¦¯": 1230,
      "Ġà¦Ĩà¦ľà¦ĵ": 1231,
      "Ġà¦¸à¦¨à¦¦": 1232,
      "Ġà¦®à¦¹à¦²": 1233,
      "Ġà¦Ĺà¦Ńà¦°": 1234,
      "Ġà¦Ĩà¦ĩà¦¸": 1235,
      "à¦²à¦¶": 1236,
      "à¦¼à¦Ĥ": 1237,
      "à§ĭ'": 1238,
      "à¦¸à¦ļ": 1239,
      "Ġà¦Ĩà¦ĵà¦¤": 1240,
      "Ġà¦¨à¦®": 1241,
      "à¦Ľà¦Ł": 1242,
      "Ġà¦¦à¦£": 1243,
      "à¦ªà¦¶": 1244,
      "à¦¶à¦¦": 1245,
      "à§Ģ),": 1246,
      "à¦ľà¦ķà¦°": 1247,
      "Ġà¦¤à¦¤à¦ķ": 1248,
      "à¦Ĺà¦Ĺ": 1249,
      "à¦ļà¦¬": 1250,
      "à¦¥à¦¤": 1251,
      "à¦¥à¦®": 1252,
      "Ġà¦¶à¦«": 1253,
      "Ġà¦Ĺà¦¤à¦¬": 1254,
      "Ġà¦ªà¦°à¦¤": 1255,
      "Ġà¦ªà¦°à¦®": 1256,
      "Ġà¦ıà¦ĩà¦®": 1257,
      "Ġà¦ĩà¦°": 1258,
      "à¦īà¦ĩ": 1259,
      "Ġà¦ħà¦¬à¦ķ": 1260,
      "Ġà¦ķà¦¬à¦ļ": 1261,
      "Ġà¦ıà¦ĸà¦¨à¦ĩ": 1262,
      "à¦°à¦¥à¦®à¦¬": 1263,
      "à§©à§¦": 1264,
      "à¦¿),": 1265,
      "à¦¨à¦¬à¦¨": 1266,
      "Ġà¦ķà¦¡": 1267,
      "Ġà¦¬à¦¬": 1268,
      "Ġà¦¬à¦¦à¦°": 1269,
      "à¦Ľà¦ķ": 1270,
      "à¦ªà¦¦à¦ķ": 1271,
      "Ġà¦ķà¦°à¦ª": 1272,
      "à¦·à¦¨": 1273,
      "Ġà¦ıà¦ķà¦ªà¦°": 1274,
      "Ġà¦īà¦°": 1275,
      "Ġà¦²à¦¤": 1276,
      "Ġà¦ħà¦¬à¦²à¦®": 1277,
      "à¦ıà¦ķ": 1278,
      "à¦°à¦¬à¦¤": 1279,
      "Ġà¦īà¦ªà¦Ń": 1280,
      "Ġà§§à§§à§": 1281,
      "à¦¯à¦®à¦ķ": 1282,
      "Ġà¦Ĩà¦¦à¦°": 1283,
      "Ġà§¨à§¦à§§à§©": 1284,
      "à¦°à¦ªà¦°à¦¨": 1285,
      "Ġà¦ĩà¦īà¦ıà¦¸": 1286,
      "'-": 1287,
      "à¦¯à¦ľ": 1288,
      "Ġà¦ķà¦ļ": 1289,
      "Ġà¦¸à¦ľ": 1290,
      "Ġà¦ªà¦¨": 1291,
      "à¦¸à¦¸": 1292,
      "Ġà¦¦à¦¤": 1293,
      "à¦¶à¦«": 1294,
      "à¦ľà¦ĸ": 1295,
      "à¦¹à¦ľ": 1296,
      "à¦ĵà¦°": 1297,
      "Ġà¦Ĺà¦¨": 1298,
      "Ġà¦«à¦¸à¦²": 1299,
      "à¦°à¦ķà¦°": 1300,
      "Ġà¦ĺà¦°à¦¬": 1301,
      "à¦¬à¦°à¦ĩ": 1302,
      "à¦¬à¦¨à¦ķ": 1303,
      "à¦ŀà¦ª": 1304,
      "Ġà¦ļà¦²à¦®": 1305,
      "Ġà§¨à§«": 1306,
      "à¦Ĩà¦¨": 1307,
      "Ġà¦īà¦¦à¦¯": 1308,
      "Ġà¦ķà¦²à¦®": 1309,
      "Ġà§«à§¦": 1310,
      "à¦°à¦«à¦°à¦®": 1311,
      "Ġà§¦à§¨": 1312,
      "Ġà¦Ĩà¦«à¦Ĺ": 1313,
      "Ġà¦¸à¦«à¦²à¦¤": 1314,
      "à¦¤à¦«": 1315,
      "à¦¬à¦®": 1316,
      "Ġà¦Ĩà¦ªà¦¤": 1317,
      "à¦Ľà¦²": 1318,
      "à¦ªà¦Ĺ": 1319,
      "à¦¶à¦¸": 1320,
      "à¦·à¦Ĺ": 1321,
      "à¦¡à¦®": 1322,
      "à¦¡à¦Ń": 1323,
      "à¦ļà¦®": 1324,
      "à¦ļà¦¡": 1325,
      "Ġà¦Ľà¦¦": 1326,
      "Ġà¦«à¦ľà¦²": 1327,
      "Ġà¦ľà¦¨à¦ķ": 1328,
      "Ġà¦¸à¦¬à¦ĩ": 1329,
      "Ġà¦¸à¦¬à¦¸à¦®à¦¯": 1330,
      "à¦Ĩà¦ĵà¦¯": 1331,
      "Ġà§§à§¬": 1332,
      "à¦°à¦§à¦°": 1333,
      "Ġà¦Ĺà¦£à¦Ń": 1334,
      "Ġà¦ķà¦¤à¦¦": 1335,
      "Ġà¦¸à¦ķà¦²à¦ķ": 1336,
      "Ġà¦ªà¦°à¦ªà¦°à¦ĩ": 1337,
      "à§ĩ.": 1338,
      "à¦°à¦¬à¦¨": 1339,
      "Ġà¦ķà¦¤à¦ķ": 1340,
      "à¦®à¦Ľ": 1341,
      "Ġà¦Ĩà¦ķà¦¤": 1342,
      "Ġà¦¨à¦°à¦ķ": 1343,
      "à¦Łà¦Ł": 1344,
      "à¦ªà¦ļ": 1345,
      "Ġà¦¹à¦ĩ": 1346,
      "Ġà¦ħà¦¹": 1347,
      "Ġà¦Ńà¦°à¦¸": 1348,
      "Ġà¦ĵà¦¸": 1349,
      "Ġà¦ĸà¦¨": 1350,
      "Ġà¦ĩà¦¸": 1351,
      "à¦¼à¦¿-": 1352,
      "Ġà¦Ĩà¦Ĺà¦®à¦¨": 1353,
      "Ġà§¨à§©": 1354,
      "à¦ĺà¦¶": 1355,
      "à§¦à§Ń": 1356,
      "à¦¬à¦²à¦Ľ": 1357,
      "Ġà¦Ĳà¦¤": 1358,
      "Ġà¦Ĩà¦¶à¦°": 1359,
      "Ġà¦¯à¦ĸà¦¨à¦ĩ": 1360,
      "Ġà§¨à§¦à§¦à§§": 1361,
      "Ġà¦Īà¦¶": 1362,
      "à¦¿!<": 1363,
      "à¦¯à¦Ń": 1364,
      "à¦¬à¦ĵ": 1365,
      "à¦¦à¦¸": 1366,
      "à¦ľà¦Ĺ": 1367,
      "Ġà¦Ĺà¦°à¦®": 1368,
      "Ġà¦īà¦Ńà¦¯": 1369,
      "Ġà¦ªà¦°à¦ĩ": 1370,
      "Ġà¦ıà¦ĩà¦¸à¦¬": 1371,
      "Ġà¦ĩà¦¬": 1372,
      "Ġà¦ĩà¦Ļ": 1373,
      "à¦ªà¦°à¦¬à¦°": 1374,
      "Ġà¦ıà¦°à¦ĩ": 1375,
      "à¦°à¦®à¦¶": 1376,
      "Ġà§¨à§¨": 1377,
      "à¦ļà¦¨à¦ķ": 1378,
      "à¦Ĩà¦Ĺ": 1379,
      "à¦ĺà¦Łà¦¨": 1380,
      "à¦®à¦ķà¦°à¦£": 1381,
      "à¦¶à¦ķà¦¦": 1382,
      "Ġà¦Ĳà¦ķ": 1383,
      "à¦Ĺà¦¨à¦¬": 1384,
      "Ġà§§à§¯à§«": 1385,
      "Ġà¦ªà¦¦à¦¤": 1386,
      "à¦ħà¦¨": 1387,
      "à¦¤à¦¨à¦¤": 1388,
      "à¦²à¦ĸ": 1389,
      "à¦²à¦īà¦¦": 1390,
      "à¦¼à§į": 1391,
      "Ġà¦¸à¦¡": 1392,
      "à¦¦à¦®à¦¸": 1393,
      "à¦¸à¦¡": 1394,
      "Ġà¦Ĩà¦ĩà¦Ł": 1395,
      "à¦Łà¦¹": 1396,
      "à¦Ľà¦¬": 1397,
      "à¦ĩà¦ľà¦¨": 1398,
      "Ġà¦ıà¦°à¦ķà¦®": 1399,
      "Ġà¦®à¦²": 1400,
      "Ġà¦®à§İà¦¸": 1401,
      "à¦ªà¦ĩ": 1402,
      "Ġà¦¤à¦¦": 1403,
      "à¦Ĺà¦ĩ": 1404,
      "Ġà¦ħà¦ļ": 1405,
      "à¦§à¦Ń": 1406,
      "Ġà¦¯à¦¤à¦ķ": 1407,
      "à¦ĵà¦²": 1408,
      "Ġà¦°à¦ļ": 1409,
      "à¦Ńà¦¨": 1410,
      "Ġà¦ĩà¦ķà¦¬": 1411,
      "à¦°à¦£à¦¤": 1412,
      "à¦ıà¦¬": 1413,
      "à¦°à¦¹à¦¤": 1414,
      "Ġà¦¤à¦ĸà¦¨à¦ĵ": 1415,
      "Ġà¦Ĺà¦£à¦¤": 1416,
      "à¦ĩà¦«à¦ķ": 1417,
      "à¦ħà¦°": 1418,
      "Ġà¦¤à¦¤à¦¦": 1419,
      "Ġà§ªà§¦": 1420,
      "Ġà§ªà§Ń": 1421,
      "à¦¾),": 1422,
      "à¦¨à¦Ľ": 1423,
      "à¦¨à¦ªà¦¤": 1424,
      "à¦¯à¦Ĺ": 1425,
      "à¦¯à¦ľà¦¨": 1426,
      "à¦¯à¦®à¦¨": 1427,
      "à¦¤à¦Ĺ": 1428,
      "à¦¼!<": 1429,
      "à¦¬à¦ļ": 1430,
      "à¦¬à§İ": 1431,
      "à¦®à¦Ń": 1432,
      "Ġà¦¸à¦ĸ": 1433,
      "Ġà¦¸à§İ": 1434,
      "à¦¦à¦Ľ": 1435,
      "à¦¦à¦Ĺ": 1436,
      "à¦¦à¦ĵ": 1437,
      "Ġà¦ªà¦¤à¦¨": 1438,
      "à¦Łà¦®": 1439,
      "à¦ĩà¦ª": 1440,
      "Ġà¦ıà¦®à¦ª": 1441,
      "à¦ªà¦¬": 1442,
      "à¦ªà¦Ľ": 1443,
      "à¦Ĺà¦ľà¦Ł": 1444,
      "à¦·à¦ľ": 1445,
      "à¦¡à¦¬": 1446,
      "à¦ļà¦¶": 1447,
      "à¦ļà¦°à¦£": 1448,
      "à¦§à¦®": 1449,
      "à¦ĵà¦¡": 1450,
      "Ġà¦¶à¦¨": 1451,
      "à¦£à¦ķ": 1452,
      "Ġà¦°à¦¹": 1453,
      "Ġà¦ĵà¦¨": 1454,
      "Ġà¦ĵà¦¹": 1455,
      "Ġà¦«à¦¤": 1456,
      "à¦Ļà¦²": 1457,
      "Ġà¦ľà¦¨à¦¶": 1458,
      "Ġà¦ľà¦¨à¦Ĺ": 1459,
      "à¦īà¦ª": 1460,
      "Ġà¦Ĩà¦²à¦ĸ": 1461,
      "à¦ıà¦²": 1462,
      "Ġà¦īà¦ªà¦²à¦¬": 1463,
      "à¦¬à¦²à¦¤": 1464,
      "Ġà¦¸à¦°à¦¬à¦°": 1465,
      "Ġà¦ĺà¦Łà¦²": 1466,
      "Ġà¦ħà¦ªà¦¸": 1467,
      "Ġà¦Ĩà¦ĩà¦¨à¦¶": 1468,
      "Ġà¦¶à¦¤à¦Ń": 1469,
      "à¦ħà¦Ń": 1470,
      "à¦°à¦ªà¦°à¦ĵ": 1471,
      "à¦¸à¦Ńà¦¬à¦¨": 1472,
      "Ġà¦īà§İà¦ķà¦£": 1473,
      "Ġ...": 1474,
      "à§¯à§": 1475,
      "à¦¤à¦°à¦ķ": 1476,
      "à¦²à¦ļ": 1477,
      "à¦¬à¦Ł": 1478,
      "à§ģ'": 1479,
      "à¦®à¦ªà¦¨": 1480,
      "Ġà¦¸à¦¦à¦°": 1481,
      "Ġà¦Ĩà¦ł": 1482,
      "Ġà¦Ĩà¦ĩà¦¡": 1483,
      "Ġà¦¨à¦°": 1484,
      "à¦ĩà¦®à¦²": 1485,
      "à¦ľà¦Ĺà¦¤": 1486,
      "à¦Ĺà¦ĵ": 1487,
      "à¦ĸà¦¸": 1488,
      "à¦ĸà¦£": 1489,
      "Ġà¦ļà¦¨": 1490,
      "à¦£à¦°": 1491,
      "Ġà¦Ĺà¦ľ": 1492,
      "Ġà¦Ńà¦£": 1493,
      "Ġà¦ıà¦ķà¦¯": 1494,
      "Ġà¦ĵà¦Ł": 1495,
      "Ġà¦ĵà¦¡": 1496,
      "Ġà¦īà¦§": 1497,
      "Ġà¦ªà¦°à¦¸": 1498,
      "Ġà¦Ĩà¦®à¦¨": 1499,
      "à¦łà¦¤": 1500,
      "Ġà¦¸à¦®à¦Ŀ": 1501,
      "Ġà§¯à§": 1502,
      "à¦īà¦¸": 1503,
      "à§İà¦ª": 1504,
      "à¦Ŀà¦²": 1505,
      "Ġà§¨à§Ń": 1506,
      "à¦¯à¦¬à¦§": 1507,
      "Ġà¦Ĩà¦¨à¦²": 1508,
      "à¦¯à¦®à¦¯": 1509,
      "Ġà§¨à§¦à§¨à§§": 1510,
      "Ġà§§à§¯à§¯": 1511,
      "à¦ķà¦ľà¦¨à¦ķ": 1512,
      "Ġà¦ıà¦ķà¦¦à¦®": 1513,
      "Ġà§¨à§¦à§¦à§¬": 1514,
      "Ġà§§à§¯à§¯à§Ń": 1515,
      "à¦Ĩà¦°à¦ıà¦¸": 1516,
      "à¦Ī": 1517,
      "à¦ķà¦ª": 1518,
      "à¦²à¦ĺ": 1519,
      "Ġà¦ķà¦¸à¦®": 1520,
      "Ġà¦¸à¦ĩ": 1521,
      "Ġà¦Ĩà¦īà¦²": 1522,
      "à¦Łà¦¦à¦²": 1523,
      "à¦ĩà¦ĵ": 1524,
      "à¦ĩà¦¸à¦¬": 1525,
      "Ġà¦¹à¦¨à¦¨": 1526,
      "Ġà¦¹à¦ľà¦®": 1527,
      "à¦¶à¦ľà¦¨": 1528,
      "à§Ģ;": 1529,
      "à¦ľà¦¹": 1530,
      "à¦ľà¦ĵ": 1531,
      "Ġà¦ħà¦®à¦¨": 1532,
      "à¦¼à¦¾à¦Ĥ": 1533,
      "à¦¹à¦Ł": 1534,
      "à¦Ńà§İà¦¸": 1535,
      "Ġà¦ĵà¦¸à¦¬": 1536,
      "Ġà¦«à¦ķ": 1537,
      "à¦ľà¦¨à¦¤": 1538,
      "à¦īà¦¬": 1539,
      "à¦īà¦ļ": 1540,
      "Ġà¦¸à¦¬à¦Ĺ": 1541,
      "Ġà¦Ĩà¦Ľà¦¡": 1542,
      "à¦ıà¦°à¦¶": 1543,
      "à¦°à¦¬à¦£à¦¤": 1544,
      "Ġà§¨à§¯": 1545,
      "Ġà¦ıà¦®à¦¨à¦ĵ": 1546,
      "Ġà¦ıà¦®à¦¨à¦Ń": 1547,
      "à¦¤à¦¬à¦¯": 1548,
      "Ġà¦¬à¦ĩà¦Ĺ": 1549,
      "Ġà§¨à§¦à§¨à§¦": 1550,
      "à¦ĸà¦ķà¦ķ": 1551,
      "Ġà¦Ĩà¦¤à¦Ļ": 1552,
      "Ġà¦ĩà¦¨à¦«": 1553,
      "Ġà¦¬à¦¹à¦¨": 1554,
      "à¦°à¦¹à¦£à¦¯": 1555,
      "Ġà¦ľà¦²à¦ª": 1556,
      "Ġà¦¤à¦¤à¦Ł": 1557,
      "à¦Ĩà¦ĩà¦Ń": 1558,
      "à¦²à¦Ńà¦¬à¦¨": 1559,
      "Ġà¦Ķà¦ªà¦¨": 1560,
      "-à¦¿": 1561,
      "Ġ.": 1562,
      "à¦°à¦·": 1563,
      "à¦¨à¦¸à¦®": 1564,
      "à¦ķà¦¸à¦®": 1565,
      "à¦²à¦ĩ": 1566,
      "à¦¬à¦¬à¦°": 1567,
      "Ġà¦ķà¦®à¦²": 1568,
      "à¦¸à¦ĺ": 1569,
      "à¦Łà¦¦": 1570,
      "Ġà¦ıà¦«": 1571,
      "Ġà¦¹à¦¦": 1572,
      "à¦Ĺà¦ł": 1573,
      "à¦·à¦Ń": 1574,
      "à¦·à¦ķà¦¤": 1575,
      "à¦ĸà¦ªà¦¤": 1576,
      "à¦¡à¦ķ": 1577,
      "à¦ļà¦¸": 1578,
      "à¦¥à¦®à¦¨": 1579,
      "à¦ĵà¦ĩà¦ī": 1580,
      "Ġà¦ĩà¦ķ": 1581,
      "Ġà¦ĩà¦®à¦°": 1582,
      "à¦īà¦¤": 1583,
      "à¦īà¦¡": 1584,
      "Ġà¦ħà¦¬à¦¤": 1585,
      "à¦ıà¦¤": 1586,
      "Ġà¦ļà¦²à¦²": 1587,
      "Ġà§¨à§¬": 1588,
      "à¦Ĩà¦ľ": 1589,
      "Ġà¦ħà¦¸à¦¨": 1590,
      "Ġà¦īà¦łà¦¬": 1591,
      "à¦Ĺà¦¤à¦Ń": 1592,
      "à§ªà§®": 1593,
      "à¦°à¦ļà¦²": 1594,
      "à¦¯à¦¤à¦¤": 1595,
      "à¦ıà¦¸à¦ĵ": 1596,
      "Ġà§«à§¦à§¦": 1597,
      "Ġà¦ĸà¦¬à¦°à¦Ł": 1598,
      "à¦°à¦ľà¦¨à¦¨": 1599,
      "à¦ıà¦®à¦ıà¦«": 1600,
      "Ġà§¨à§¦à§¦à§®": 1601,
      "Ġà¦Ĩà¦ĩà¦ıà¦¸à¦ĵ": 1602,
      "Ġà§§à§¯à§®à§¬": 1603,
      "Ġà¦·à¦¡": 1604,
      "à§¨à§¦à§§à§": 1605,
      "Ġà¦ĩà¦īà¦ıà¦¸à¦ıà¦°": 1606,
      "Ġà§§à§¯à§¯à§¦": 1607,
      "à¦¨à¦¡": 1608,
      "à¦¨à¦«": 1609,
      "à¦¤à¦ļ": 1610,
      "à¦¼)": 1611,
      "à¦¬à¦¦à¦¨": 1612,
      "à¦¬à¦¶à¦ķ": 1613,
      "Ġà¦ķà¦®à¦¨": 1614,
      "Ġà¦ķà¦¨à¦¸": 1615,
      "Ġà¦ķà¦¦à¦®": 1616,
      "à¦®à¦¹à¦°": 1617,
      "Ġà¦Ĩà¦¬à¦°": 1618,
      "Ġà¦®à¦®à¦¤": 1619,
      "à¦¶à¦ľ": 1620,
      "Ġà¦¤à¦¡": 1621,
      "à¦Ĺà¦łà¦ķ": 1622,
      "à¦§à¦¡": 1623,
      "à¦§à¦Ĺà¦®": 1624,
      "à¦¥à¦¬": 1625,
      "à¦£à¦®": 1626,
      "à¦£à¦Ń": 1627,
      "à¦£à¦«": 1628,
      "Ġà¦Ĺà¦¦": 1629,
      "Ġà¦°à¦¶": 1630,
      "Ġà¦ıà¦ķà¦¸à¦®à¦¯": 1631,
      "Ġà¦īà¦¬": 1632,
      "Ġà¦ĸà¦¤": 1633,
      "Ġà¦ĸà¦£": 1634,
      "Ġà¦«à¦Ł": 1635,
      "à¦łà¦Ł": 1636,
      "Ġà¦ıà¦ĩà¦Ł": 1637,
      "à¦°à¦¤à¦°": 1638,
      "Ġà¦ĩà¦ľ": 1639,
      "Ġà¦ĩà¦ŀ": 1640,
      "à¦¼à¦¿,": 1641,
      "Ġà¦ľà¦¨à¦¨": 1642,
      "Ġà¦ľà¦¨à¦¸à¦®": 1643,
      "à¦®à¦¨à¦Ł": 1644,
      "à¦¬à¦°à¦ļ": 1645,
      "à¦¤à¦°à¦Ł": 1646,
      "Ġà¦¸à¦¬à¦Ł": 1647,
      "à¦Ŀà¦°": 1648,
      "à§¦à§©": 1649,
      "à¦°à¦¶à¦¸": 1650,
      "à¦¤à¦ķà¦°à¦£": 1651,
      "Ġà¦Ĩà¦ķà¦¸": 1652,
      "à¦ªà¦¦à¦¬": 1653,
      "à¦¹à¦¤à¦¦": 1654,
      "à¦°à¦¨à¦Ĺà¦°": 1655,
      "Ġà¦¯à¦¤à¦ĩ": 1656,
      "à¦®à¦¬à¦Ļ": 1657,
      "à¦łà¦ķà¦ĸ": 1658,
      "Ġà¦¦à¦¶à¦Ł": 1659,
      "Ġà¦ħà¦ľà¦¸": 1660,
      "Ġà§§à§¯à§®à§®": 1661,
      "Ġà¦Ĩà¦«à¦¸": 1662,
      "à¦°à¦²à¦¯": 1663,
      "à¦¨à¦¬à¦¤": 1664,
      "à¦ķà¦°à¦¤": 1665,
      "à¦²à¦¥": 1666,
      "à¦¼à§Ĥ": 1667,
      "Ġà¦¬à¦Łà¦Ĺ": 1668,
      "Ġà¦¸à¦«à¦°": 1669,
      "à§ĭà¦ĥ": 1670,
      "à¦¦à¦īà¦¦": 1671,
      "Ġà¦ªà¦¬": 1672,
      "à¦¸à¦¯": 1673,
      "à¦¸à¦ľ": 1674,
      "Ġà¦Ĩà¦īà¦Ł": 1675,
      "Ġà¦¨à¦²": 1676,
      "Ġà¦¨à¦ĩ": 1677,
      "Ġà¦¨à¦°à¦¸": 1678,
      "à¦Łà¦ĵ": 1679,
      "Ġà¦®à¦°à¦£": 1680,
      "à¦¶à¦®": 1681,
      "à§ĢâĢĶ": 1682,
      "à¦ľà¦Ľ": 1683,
      "à¦ľà¦ªà¦¥": 1684,
      "à¦Ĺà¦Ļ": 1685,
      "à¦·à¦¬": 1686,
      "à¦§à¦¶à¦¤": 1687,
      "Ġà¦ľà¦ľ": 1688,
      "Ġà¦ľà¦Ĺ": 1689,
      "Ġà¦¶à¦Ļ": 1690,
      "à¦£à¦ª": 1691,
      "Ġà¦ıà¦ķà¦ļ": 1692,
      "Ġà¦ıà¦ķà¦¸à¦Ļ": 1693,
      "Ġà¦ĵà¦ľà¦¨": 1694,
      "Ġà¦¥à¦²": 1695,
      "Ġà¦²à¦¨": 1696,
      "Ġà¦²à¦¬à¦£": 1697,
      "Ġà¦ªà¦°à¦¨": 1698,
      "Ġà¦ªà¦°à¦ķ": 1699,
      "Ġà¦ĸà¦²à¦¨": 1700,
      "Ġà¦¸à¦®à¦¤": 1701,
      "Ġà¦ħà¦¨à¦¨": 1702,
      "à¦¤à¦°à¦¸": 1703,
      "Ġà¦®à¦¤à¦¬": 1704,
      "à¦®à¦¤à¦²": 1705,
      "à¦ĺà¦£": 1706,
      "Ġà¦Ĩà¦¨à¦¸": 1707,
      "à¦°à¦¸à¦«": 1708,
      "Ġà¦¦à¦²à¦ĩ": 1709,
      "Ġà¦Ĩà¦ľà¦®": 1710,
      "à§ªà§«": 1711,
      "Ġà¦¸à¦¹à¦ª": 1712,
      "Ġà¦¸à¦¹à¦ķà¦°": 1713,
      "à¦¨à¦¬à¦¬à¦¨": 1714,
      "à¦ļà¦²à¦ļ": 1715,
      "Ġà§¨à§¦à§§à§Ń": 1716,
      "Ġà§¬à§®": 1717,
      "Ġà¦®à¦ľà¦²": 1718,
      "Ġà¦ļà¦ķà¦ļà¦ķ": 1719,
      "Ġà¦¨à¦ľà¦°à¦¦": 1720,
      "Ġà§§à§¯à§¯à§¬": 1721,
      "à¦ıà¦ĩà¦ļ": 1722,
      "à§¨à§¦à§¨à§ª": 1723,
      "Ġà¦Ĺà¦¤à¦¬à¦Ľà¦°": 1724,
      "'âĢĶ": 1725,
      "à¦°à¦ªà¦ķ": 1726,
      "à¦²à¦®à¦²": 1727,
      "à¦¬à¦ķà¦°": 1728,
      "Ġà¦ķà¦ľà¦¨": 1729,
      "à¦®à¦°à¦ķ": 1730,
      "à¦®à¦¸à¦®": 1731,
      "à¦®à¦¹à¦¤": 1732,
      "Ġà¦¸à¦¶à¦¸": 1733,
      "à§ĭ!<": 1734,
      "Ġà¦Ĩà¦·": 1735,
      "Ġà¦¨à¦¥": 1736,
      "Ġà¦¨à¦Ĺà¦°": 1737,
      "à¦Łà¦«à¦°": 1738,
      "Ġà¦ıà¦¹": 1739,
      "Ġà¦¦à¦°à¦¬": 1740,
      "Ġà¦¦à¦²à¦ķ": 1741,
      "à¦¼à§ĩ;": 1742,
      "Ġà¦®à¦¦": 1743,
      "à¦¶à¦ĵ": 1744,
      "à¦¶à¦Ń": 1745,
      "à¦¶à¦ķà¦°": 1746,
      "à¦ľà¦¤à¦ķ": 1747,
      "Ġà¦ķà¦°à¦£": 1748,
      "à¦ĸà¦Ĺ": 1749,
      "à¦ĸà¦¬à¦°": 1750,
      "à¦¼à¦¾'": 1751,
      "à¦¥à¦Ń": 1752,
      "à¦ĵà¦®": 1753,
      "Ġà¦¶à¦¯": 1754,
      "à¦£à¦Ĺà¦ŀ": 1755,
      "à¦£à¦ªà¦¦à¦ķ": 1756,
      "Ġà¦Ńà¦Ł": 1757,
      "Ġà¦ıà¦ķà¦®à¦¤": 1758,
      "Ġà¦ıà¦ķà¦¦à¦²": 1759,
      "Ġà¦ĵà¦·": 1760,
      "Ġà¦ĵà¦¸à¦®": 1761,
      "Ġà¦īà¦ĩ": 1762,
      "Ġà¦ªà¦°à¦°": 1763,
      "Ġà¦ĸà¦°": 1764,
      "Ġà¦ĸà¦¦": 1765,
      "Ġà¦ĸà¦ŀ": 1766,
      "Ġà¦«à¦¯": 1767,
      "à¦°à¦ķà¦¨": 1768,
      "Ġà¦ĺà¦¡": 1769,
      "à¦īà¦®": 1770,
      "Ġà¦Łà¦ķà¦¶": 1771,
      "à¦¬à¦¨à¦¯": 1772,
      "à¦ıà¦ķà¦ľà¦¨": 1773,
      "à¦Ŀà¦ķ": 1774,
      "à¦Ĩà¦®à¦°": 1775,
      "Ġà¦¸à¦°à¦ŀ": 1776,
      "Ġà¦Ŀà¦ķ": 1777,
      "Ġà¦ħà¦ªà¦ķà¦°": 1778,
      "Ġà¦ħà¦ªà¦¶à¦¨": 1779,
      "Ġà¦Ĩà¦ķà¦£": 1780,
      "Ġà§©à§¦à§Ń": 1781,
      "Ġà¦¤à¦°à¦«": 1782,
      "Ġà¦¤à¦¤à¦ĩ": 1783,
      "Ġà¦¹à¦ķà¦ļà¦ķ": 1784,
      "à§§à§«": 1785,
      "Ġà¦Ĩà¦Łà¦ļà¦²": 1786,
      "Ġà¦Ĺà¦£à¦Ńà¦¬à¦¨": 1787,
      "';": 1788,
      "à¦°à¦ĵà¦¯": 1789,
      "à¦¯à¦¹": 1790,
      "à¦¯à¦®à¦¤": 1791,
      "à¦¯à¦¯à¦¨": 1792,
      "à¦¤à¦¸": 1793,
      "à¦ķà¦ľ": 1794,
      "à¦ķà¦£": 1795,
      "à¦²à¦ľà¦¯": 1796,
      "à¦®à¦ªà¦°": 1797,
      "à¦®à¦®à¦¤": 1798,
      "à¦¦à¦²à¦¬": 1799,
      "Ġà¦ªà¦Ł": 1800,
      "à¦¸à¦®à¦°": 1801,
      "à¦¸à¦¦à¦°": 1802,
      "à¦Łà¦ĵà¦¯": 1803,
      "à¦Ľà¦ª": 1804,
      "à¦Ľà¦¡": 1805,
      "Ġà¦®à¦ĵà¦²": 1806,
      "à¦ªà¦°à¦ķ": 1807,
      "à§Ģà¦Ĥ": 1808,
      "à¦Ĺà¦°à¦£": 1809,
      "à¦·à¦ĩ": 1810,
      "à¦·à¦¤à¦ķ": 1811,
      "à¦¡à¦°": 1812,
      "Ġà¦ħà¦¬à¦¨": 1813,
      "à¦ļà¦ªà¦¦": 1814,
      "à¦§à¦¦": 1815,
      "à¦§à¦Ł": 1816,
      "à¦§à¦ĵ": 1817,
      "Ġà¦ľà¦Łà¦²": 1818,
      "à¦¹à§İ": 1819,
      "à¦ĵà¦¸": 1820,
      "Ġà¦¶à¦ĸ": 1821,
      "Ġà¦¶à¦ªà¦¥": 1822,
      "à¦£à¦§": 1823,
      "à¦Ńà¦Ł": 1824,
      "à¦Ńà¦ª": 1825,
      "Ġà¦Ńà¦ķ": 1826,
      "Ġà¦Ńà¦Ĺ": 1827,
      "Ġà¦Ńà¦Ĺà¦¬": 1828,
      "Ġà¦ıà¦ķà¦¤": 1829,
      "à¦«à¦¨": 1830,
      "Ġà¦ªà¦°à¦¶": 1831,
      "Ġà¦Ĩà¦®à¦¤": 1832,
      "à¦ľà¦¨à¦¶": 1833,
      "à¦°à¦¤à¦²": 1834,
      "à¦°à¦¤à¦®": 1835,
      "Ġà¦ĩà¦¸à¦¹": 1836,
      "Ġà¦ĩà¦«à¦¤": 1837,
      "Ġà¦§à¦°à¦£": 1838,
      "Ġà¦Ĩà¦°à¦ľ": 1839,
      "à¦®à¦¨à¦¸": 1840,
      "à¦īà¦¬à¦¨": 1841,
      "Ġà¦Ĩà¦²à¦®à¦Ĺ": 1842,
      "à¦°à¦£à¦¯": 1843,
      "Ġà¦®à¦¤à¦ª": 1844,
      "Ġà¦Ĩà¦¬à¦Ľ": 1845,
      "Ġà§¨à§¦à§¦": 1846,
      "à§¦à§§": 1847,
      "Ġà¦Ĩà¦¨à¦¬": 1848,
      "Ġà¦ħà¦ªà¦ļà¦¯": 1849,
      "Ġà¦¬à¦ĩà¦Ľ": 1850,
      "Ġà¦ħà¦¤à¦ıà¦¬": 1851,
      "à¦·à¦ķà¦ķ": 1852,
      "Ġà§©à§©": 1853,
      "Ġà§©à§Ń": 1854,
      "à§¨à§ª": 1855,
      "Ġà¦ªà¦¦à¦¬": 1856,
      "Ġà¦ªà¦¦à¦ļ": 1857,
      "Ġà¦ıà¦ķà¦ĩà¦¸à¦Ļ": 1858,
      "Ġà§¨à§¦à§§à§¬": 1859,
      "Ġà§¨à§¦à§§à§¯": 1860,
      "Ġà¦ľà¦²à¦°": 1861,
      "à¦ıà¦¸à¦Ĩà¦ĩ": 1862,
      "à¦®à¦¸à¦®à¦°": 1863,
      "à¦°à¦ľà¦¨à¦ķ": 1864,
      "à¦°à¦Ĺà¦ŀ": 1865,
      "Ġà§¬à§Ń": 1866,
      "à¦ıà¦®à¦Ł": 1867,
      "Ġà¦Ĩà¦ĩà¦ıà¦®à¦ıà¦«": 1868,
      "Ġà§§à§¯à§®à§©": 1869,
      "Ġà§§à§¯à§®à§Ń": 1870,
      "à¦Ĺà¦łà¦¨à¦Ĺ": 1871,
      "à§§à§¯à§®": 1872,
      "Ġà¦¹à¦ľà¦°à¦¤": 1873,
      "à¦ľà¦ĸà¦¬à¦°": 1874,
      "Ġà¦Ŀà¦ķà¦Ŀà¦ķ": 1875,
      "à§·": 1876,
      "à¦¯à¦Ļ": 1877,
      "à¦¤à¦ķà¦¤": 1878,
      "à¦¤à¦ļà¦°": 1879,
      "à¦²à¦§": 1880,
      "à¦¬à¦¦à¦²": 1881,
      "Ġà¦ķà¦®à¦¤": 1882,
      "Ġà¦ķà¦ĵà¦®": 1883,
      "à§ģà¦Ĥ": 1884,
      "à¦®à¦ŀ": 1885,
      "Ġà¦¸à¦¯": 1886,
      "Ġà¦¸à§İà¦ķ": 1887,
      "Ġà¦¸à¦¶à¦°": 1888,
      "Ġà¦ªà¦ª": 1889,
      "à¦¸à¦ĩ": 1890,
      "à¦¸à¦¨à¦ķ": 1891,
      "à¦¸à¦Ĩà¦²": 1892,
      "Ġà¦Ĩà¦«à¦°": 1893,
      "Ġà¦¨à¦ĩà¦²": 1894,
      "Ġà¦¨à¦°à¦¹à¦¤": 1895,
      "à¦Ľà¦Ĺ": 1896,
      "à¦Ľà¦ķà¦ĩ": 1897,
      "à¦ĩà¦ĸ": 1898,
      "à¦ĩà¦¸à¦²": 1899,
      "à¦ªà§İà¦¸": 1900,
      "à¦¶à¦¹": 1901,
      "à¦¶à¦¬à¦¨": 1902,
      "à§Ģ)": 1903,
      "à§Ģ!<": 1904,
      "à¦ľà¦ķà¦¨": 1905,
      "Ġà¦¤à¦¬à¦²": 1906,
      "Ġà¦¤à¦¸à¦²": 1907,
      "à¦Ĺà¦ª": 1908,
      "à¦Ĺà¦²à¦ķ": 1909,
      "à¦ĸà¦ļ": 1910,
      "à¦ĸà¦ķà¦°": 1911,
      "Ġà¦ħà¦ĸ": 1912,
      "Ġà¦ħà¦®à¦°": 1913,
      "Ġà¦ħà¦Łà¦²": 1914,
      "à¦ļà¦ľà¦¨": 1915,
      "à¦§à¦ķà¦°": 1916,
      "à¦§à¦ķà¦¤": 1917,
      "à¦§à¦°à¦¨": 1918,
      "Ġà¦ľà¦¹": 1919,
      "Ġà¦ľà¦¬à¦°": 1920,
      "à¦ĵà¦ķ": 1921,
      "Ġà¦¶à¦°à¦£": 1922,
      "Ġà¦ļà¦ĵà¦¡": 1923,
      "à¦£à¦ļ": 1924,
      "à¦£à¦ªà¦£": 1925,
      "Ġà¦Ĺà¦ł": 1926,
      "Ġà¦ıà¦ķà¦ª": 1927,
      "Ġà¦ıà¦ķà¦ļà¦²": 1928,
      "Ġà¦ĵà¦¶": 1929,
      "Ġà¦ĵà¦®à¦°": 1930,
      "Ġà¦Ľà¦¨": 1931,
      "Ġà¦«à¦ľà¦°": 1932,
      "Ġà¦Ĩà¦®à¦ľà¦¨à¦¤": 1933,
      "à¦łà¦ª": 1934,
      "Ġà¦¸à¦®à¦ķ": 1935,
      "Ġà¦ľà¦¨à¦¬à¦²": 1936,
      "Ġà¦ľà¦¨à¦ªà¦¦": 1937,
      "Ġà¦Ĩà¦²à¦¤": 1938,
      "Ġà¦Łà¦ķ": 1939,
      "Ġà¦ķà¦¬à¦²": 1940,
      "à¦Ŀà¦ªà¦¥": 1941,
      "Ġà§¨à§¦à§¦à§¦": 1942,
      "Ġà¦īà¦ªà¦ªà¦¤": 1943,
      "Ġà¦ıà¦ĸà¦¨à¦ķ": 1944,
      "à¦ªà¦¤à¦¨": 1945,
      "à¦Ĩà¦¬": 1946,
      "à¦Ĩà¦¦": 1947,
      "à¦Ĩà¦¶": 1948,
      "à¦°à¦¦à¦¤": 1949,
      "Ġà¦Ĩà¦ªà¦¨à¦ľà¦¨": 1950,
      "Ġà¦¸à¦°à¦Ľ": 1951,
      "Ġà¦Ŀà¦²à¦®à¦²": 1952,
      "Ġà¦¬à¦ĩà¦ª": 1953,
      "Ġà¦ķà¦®à¦ªà¦ķ": 1954,
      "Ġà¦¤à¦ĸà¦¨à¦ķ": 1955,
      "Ġà¦¬à¦Ľà¦°à¦ĩ": 1956,
      "Ġà¦ıà¦¤à¦Ĺ": 1957,
      "Ġà¦Ĳà¦¶": 1958,
      "à§¨à§©": 1959,
      "à§©à§«": 1960,
      "Ġà¦¶à¦¤à¦ķà¦°": 1961,
      "Ġà¦ªà¦¦à¦§": 1962,
      "à¦Ĺà¦²à¦Ł": 1963,
      "à¦¾',": 1964,
      "à¦Łà¦¨à¦°": 1965,
      "à¦¹à¦«à¦ķ": 1966,
      "Ġà§¨à§¦à§§à§«": 1967,
      "Ġà¦ħà¦¦à¦®": 1968,
      "Ġà¦ªà¦¦à¦ķà¦ª": 1969,
      "Ġà§¨à§¦à§¦à§ª": 1970,
      "Ġà§Ńà§«": 1971,
      "Ġà¦ıà¦ľà¦Ĺà¦¤": 1972,
      "Ġà§§à§¯à§Ńà§§": 1973,
      "Ġà¦Ķà¦¦": 1974,
      "Ġà¦°à¦¹à¦®à¦¤": 1975,
      "à¦Īà¦®": 1976,
      "Ġà¦ľà¦¬à¦°à¦¦à¦¸": 1977,
      "§à§¦": 1978,
      "à¦°à¦®à¦¨": 1979,
      "à¦°à¦ŀ": 1980,
      "à¦¨à¦·": 1981,
      "à¦¨à¦°à¦¤": 1982,
      "à¦¨à¦ķà¦°": 1983,
      "à¦¯à¦¶": 1984,
      "à¦¯à¦°à¦ķà¦®": 1985,
      "à¦¤à¦Ľ": 1986,
      "à¦ķà¦ªà¦°": 1987,
      "à¦ķà¦¬à¦°": 1988,
      "à¦ķà¦®à¦¤": 1989,
      "à¦ķà¦¬à¦²": 1990,
      "à¦ķà¦Ĩà¦ª": 1991,
      "à¦¬à¦Ļ": 1992,
      "à¦¬à¦Ĺà¦¤": 1993,
      "Ġà¦ķà¦¨à¦Ń": 1994,
      "à§ģ;": 1995,
      "à§ģ!<": 1996,
      "à¦®à¦ĸ": 1997,
      "à¦®à¦¸à¦¹": 1998,
      "à¦®à¦¹à¦²": 1999,
      "Ġà¦¬à¦£": 2000,
      "Ġà¦¬à¦ŀ": 2001,
      "Ġà¦¸à¦ľà¦¨": 2002,
      "Ġà¦ªà¦Ļ": 2003,
      "Ġà¦¨à¦Ĺ": 2004,
      "Ġà¦¨à¦°à¦®": 2005,
      "à¦Łà¦¯": 2006,
      "à¦Ľà¦¦": 2007,
      "à¦ĩà¦ļ": 2008,
      "Ġà¦ıà¦ĵ": 2009,
      "Ġà¦ıà¦¨à¦Ł": 2010,
      "Ġà¦¦à¦°à¦¦": 2011,
      "Ġà¦®à¦ķ": 2012,
      "à¦ªà¦ĵ": 2013,
      "à¦ªà¦¶à¦¨": 2014,
      "Ġà¦¹à¦¸à¦ª": 2015,
      "Ġà¦¤à¦¨": 2016,
      "Ġà¦¤à¦¸": 2017,
      "Ġà¦¤à¦°à¦²": 2018,
      "à¦·à¦ª": 2019,
      "à¦ĸà¦ª": 2020,
      "à¦¡à¦ĵ": 2021,
      "à¦¼à¦¾;": 2022,
      "à¦¼à¦¾âĢĶ": 2023,
      "à¦§à¦¸": 2024,
      "à¦¹à¦¤à¦°": 2025,
      "Ġà¦ļà¦¬": 2026,
      "Ġà¦ļà¦®": 2027,
      "Ġà¦°à¦®": 2028,
      "Ġà¦°à¦¦": 2029,
      "Ġà¦°à¦®à¦ľ": 2030,
      "Ġà¦ıà¦ķà¦ľ": 2031,
      "Ġà¦ıà¦ķà¦°à¦ķà¦®": 2032,
      "Ġà¦ĵà¦®": 2033,
      "Ġà¦ĵà¦Ĺ": 2034,
      "Ġà¦īà¦¹": 2035,
      "à¦«à¦Ł": 2036,
      "Ġà¦Ľà¦²à¦Ľ": 2037,
      "Ġà¦ĸà¦¸": 2038,
      "Ġà¦«à¦°à¦®": 2039,
      "à§Ĥà¦ģ": 2040,
      "Ġà¦¸à¦®à¦¬": 2041,
      "Ġà¦¸à¦®à¦®": 2042,
      "Ġà¦¸à¦®à¦Ĺ": 2043,
      "Ġà¦ıà¦ĩà¦¤": 2044,
      "Ġà¦ĩà¦¤à¦¨": 2045,
      "Ġà¦ĩà¦īà¦Ł": 2046,
      "Ġà¦§à¦ª": 2047,
      "Ġà¦Ĩà¦°à¦¸": 2048,
      "à¦Ļà¦ļ": 2049,
      "Ġà¦¡à¦ľà¦¨": 2050,
      "à¦¬à¦¨à¦Ł": 2051,
      "Ġà¦ıà¦°à¦ĵ": 2052,
      "Ġà¦ħà¦¬à¦ļ": 2053,
      "Ġà¦§à¦°à¦Ľ": 2054,
      "à¦ıà¦®à¦¬": 2055,
      "Ġà¦ķà¦¬à¦ļà¦Ł": 2056,
      "à¦Ŀà¦¬": 2057,
      "Ġà¦Ĩà¦¬à¦¶": 2058,
      "Ġà¦īà¦ªà¦ª": 2059,
      "Ġà¦¢à¦²": 2060,
      "à¦¤à¦¨à¦Ń": 2061,
      "à¦ĺà¦¤à¦®": 2062,
      "à§¦à§¯": 2063,
      "Ġà§§à§Ń": 2064,
      "à¦¬à¦²à¦®": 2065,
      "à¦¬à¦²à¦ľ": 2066,
      "à¦²à¦¨à¦ķ": 2067,
      "à¦²à¦¨à¦°à¦¤": 2068,
      "Ġà¦ĺà¦Łà¦Ľ": 2069,
      "Ġà¦łà¦ķ": 2070,
      "Ġà¦ķà¦®à¦ª": 2071,
      "Ġà§¨à§¦à§§à§¦": 2072,
      "à¦°à¦¥à¦®à¦¦": 2073,
      "à¦°à¦²à¦¸": 2074,
      "Ġà¦ħà¦¤à¦²": 2075,
      "à¦·à¦ķà¦¸à¦®": 2076,
      "Ġà§©à§ª": 2077,
      "Ġà§©à§§": 2078,
      "Ġà§©à§¦à§©": 2079,
      "à§¨à§Ń": 2080,
      "à§¨à§«": 2081,
      "Ġà¦ĵà¦°à¦«": 2082,
      "Ġà¦Ĺà¦£à¦¸": 2083,
      "Ġà¦Ĺà¦£à¦ľ": 2084,
      "à¦®à¦¦à¦ª": 2085,
      "à§«à§¦": 2086,
      "à§«à§«": 2087,
      "à¦¸à¦¦à¦¸": 2088,
      "à¦¸à¦¦à¦ĵ": 2089,
      "à¦ħà¦¬à¦¸": 2090,
      "à¦¨à¦ľà¦Ł": 2091,
      "Ġà§ªà§«": 2092,
      "Ġà¦¨à¦¬à¦¬à¦°": 2093,
      "Ġà§¬à§¦": 2094,
      "Ġà¦ħà¦²à¦¸": 2095,
      "Ġà¦ĩà¦¶à¦¤": 2096,
      "à§§à§¯": 2097,
      "Ġà§Ńà§¦": 2098,
      "à§¯à§¦": 2099,
      "à¦¯à¦¥à¦Ń": 2100,
      "Ġà¦Ĩà¦Łà¦Ł": 2101,
      "Ġà¦ķà¦¨à¦«": 2102,
      "à¦¨à¦ľà¦¨à¦ĩ": 2103,
      "Ġà¦Īà¦°": 2104,
      "Ġà§§à§¯à§Ńà§¯": 2105,
      "Ġà§§à§¯à§¬à§ª": 2106,
      "à¦ıà¦¨à¦ıà¦¨": 2107,
      "Ġà§¨à§®à§§": 2108,
      "Ġà§§à§¯à§«à§ª": 2109,
      "à¦Ĺà¦łà¦¨à¦Ł": 2110,
      "Ġà¦Ľà¦²à¦Ľà¦²": 2111,
      "à¦°à¦Ļ": 2112,
      "à¦°à¦ĺ": 2113,
      "à¦°à¦ªà¦¦": 2114,
      "à¦°à¦īà¦¦": 2115,
      "à¦¨à¦ļ": 2116,
      "à¦¨à¦°à¦¸": 2117,
      "à¦¨à¦¶à¦Ł": 2118,
      "à¦¨à¦°à¦ķà¦®": 2119,
      "à¦¯à¦°à¦¸": 2120,
      "à¦¯à¦ªà¦¦": 2121,
      "à¦ķà¦ł": 2122,
      "à¦ķà¦īà¦ľ": 2123,
      "à¦¬à¦Ĺ": 2124,
      "Ġà¦ķà¦¸": 2125,
      "Ġà¦ķà¦¨à¦Ł": 2126,
      "à¦®à¦ĺ": 2127,
      "à¦®à¦ĺà¦Ł": 2128,
      "Ġà¦¬à¦ī": 2129,
      "Ġà¦¬à¦°à¦£": 2130,
      "à§ĭ)": 2131,
      "à¦¸à¦ĸà¦¤": 2132,
      "Ġà¦¨à¦Ł": 2133,
      "à¦Łà¦ķà¦Ł": 2134,
      "à¦ĩà¦Ĺ": 2135,
      "à¦ĩà¦īà¦¨": 2136,
      "Ġà¦ıà¦¯": 2137,
      "Ġà¦ıà¦§à¦°à¦¨": 2138,
      "Ġà¦¦à¦¡": 2139,
      "Ġà¦®à¦ĸ": 2140,
      "Ġà¦®à¦°à¦¹": 2141,
      "Ġà¦®à¦ĵà¦ķ": 2142,
      "à¦ªà¦¬à¦¯": 2143,
      "Ġà¦¹à¦ĩà¦²": 2144,
      "à¦ľà¦ª": 2145,
      "à¦Ĺà¦¨à¦ķ": 2146,
      "à¦·à¦ĵ": 2147,
      "à¦¡à¦¸": 2148,
      "à¦¡à¦ª": 2149,
      "à¦¡à¦¹": 2150,
      "Ġà¦ħà¦·": 2151,
      "Ġà¦ħà¦£": 2152,
      "Ġà¦ħà¦¤à¦°": 2153,
      "Ġà¦ħà¦¶à¦¨": 2154,
      "Ġà¦ħà¦¢": 2155,
      "à¦ļà¦¤à¦²": 2156,
      "à¦¼à¦¾)": 2157,
      "à¦§à¦¶": 2158,
      "Ġà¦ľà¦®à¦¤": 2159,
      "à¦¥à¦ª": 2160,
      "à¦¥à¦¬à¦Ľà¦°": 2161,
      "Ġà¦¶à¦¸": 2162,
      "Ġà¦¶à¦®à¦¸": 2163,
      "Ġà¦ļà¦°à¦£": 2164,
      "à¦£à¦Ł": 2165,
      "à¦£à¦°à¦¸": 2166,
      "Ġà¦Ĺà¦¯": 2167,
      "Ġà¦Ĺà¦¤à¦°": 2168,
      "Ġà¦ıà¦ķà¦¨": 2169,
      "Ġà¦ıà¦ķà¦¤à¦°": 2170,
      "Ġà¦īà¦·": 2171,
      "à¦«à¦²à¦¨": 2172,
      "Ġà¦Ľà¦Łà¦«": 2173,
      "Ġà¦«à¦Łà¦ķ": 2174,
      "Ġà¦«à¦¸à¦ķ": 2175,
      "Ġà¦Ĩà¦®à¦²à¦¨": 2176,
      "à¦łà¦Ĺà¦¡": 2177,
      "Ġà¦ľà¦¨à¦®à¦¤": 2178,
      "à¦®à¦¨à¦ĩ": 2179,
      "à¦īà¦¶à¦¨": 2180,
      "à¦īà¦ªà¦¸": 2181,
      "Ġà¦Ĩà¦²à¦Ĺ": 2182,
      "à¦¤à¦°à¦Ļ": 2183,
      "à§İà¦¬": 2184,
      "à§İà¦¦": 2185,
      "à¦ıà¦¸à¦ª": 2186,
      "Ġà¦Ĩà¦Ĺà¦®": 2187,
      "Ġà¦īà¦ªà¦¡": 2188,
      "à¦¤à¦¨à¦Ł": 2189,
      "à¦ķà¦²à¦¨": 2190,
      "à¦Ĩà¦¸": 2191,
      "à¦Ĩà¦¡": 2192,
      "à¦²à¦ķà¦ķ": 2193,
      "à¦²à¦ķà¦Ń": 2194,
      "Ġà¦Ĩà¦¨à¦®à¦¨": 2195,
      "à¦°à¦¸à¦°": 2196,
      "à¦ĩà¦¨à¦¬": 2197,
      "Ġà¦ĺà¦Łà¦¤": 2198,
      "Ġà¦¬à¦°à¦«": 2199,
      "Ġà¦¸à¦¨à¦¦à¦ªà¦¤": 2200,
      "Ġà¦Ĳà¦¸à¦¬": 2201,
      "Ġà¦Ĩà¦¶à¦ª": 2202,
      "Ġà¦ħà¦¤à¦Ł": 2203,
      "Ġà¦Ĩà¦ķà¦¡": 2204,
      "Ġà¦Ĺà¦£à¦¹à¦¤": 2205,
      "à¦ĸà¦ķà¦ªà¦°": 2206,
      "à¦¬à¦ķà¦ķ": 2207,
      "Ġà¦¯à¦¤à¦Ĺ": 2208,
      "Ġà§®à§¦": 2209,
      "à¦ļà¦ķà¦Ń": 2210,
      "à¦ħà¦ķ": 2211,
      "à¦ħà¦¸": 2212,
      "à¦¨à¦¦à¦£": 2213,
      "Ġà§¨à§¦à§§à§¨": 2214,
      "Ġà¦ľà¦²à¦¸": 2215,
      "Ġà¦¨à¦¬à¦®": 2216,
      "à¦Ĩà¦ĩà¦ª": 2217,
      "Ġà¦ħà¦²à¦°": 2218,
      "à¦ıà¦®à¦ıà¦²": 2219,
      "Ġà§¨à§¦à§¦à§¨": 2220,
      "Ġà§¨à§¦à§¦à§Ń": 2221,
      "Ġà¦Ĩà¦ĩà¦ľ": 2222,
      "Ġà§§à§¯à§®à§¦": 2223,
      "Ġà§§à§¯à§¯à§¨": 2224,
      "Ġà§§à§¯à§¯à§¯": 2225,
      "à¦°à¦ĸà¦°": 2226,
      "à¦ıà¦ĩà¦ļà¦¡": 2227,
      "à§¨à§¦à§¨à§¨": 2228,
      "à¦ħà¦¬à¦¸à¦°": 2229,
      "Ġà¦ıà¦ķà¦¤à¦°à¦«": 2230,
      "Ġà¦Ľà¦Łà¦«à¦Ł": 2231,
      "à¦ıà¦®à¦ıà¦²à¦ı": 2232,
      "-à§ĩ": 2233,
      "ªà§§": 2234,
      "Ġ)": 2235,
      "à¦Ĳ": 2236,
      "à¦¾...": 2237,
      "à§ĩ...": 2238,
      "à¦°à¦Ĩà¦¨": 2239,
      "à¦¨à¦ªà¦°": 2240,
      "à¦¨à¦¸à¦¹": 2241,
      "à¦¨à¦ľà¦¨à¦ķ": 2242,
      "à¦¯à¦¬à¦°": 2243,
      "à¦¯à§İ": 2244,
      "à¦¯à¦ªà¦¤": 2245,
      "à¦¯à¦ªà¦Ł": 2246,
      "à¦¤à¦¥": 2247,
      "à¦¤à¦£": 2248,
      "à¦¤à¦ĸà¦¨": 2249,
      "à¦ķà¦¯": 2250,
      "à¦ķà¦·": 2251,
      "à¦ķà¦¤à¦°": 2252,
      "à¦²à¦¡": 2253,
      "à¦²à¦Ļ": 2254,
      "à¦²à¦¬à¦¨": 2255,
      "à¦²à¦¸à¦¹": 2256,
      "à¦¬à¦°à¦ķ": 2257,
      "à¦¬à¦ªà¦¨": 2258,
      "Ġà¦ķà¦¨à¦ķ": 2259,
      "à§ģà§ģ": 2260,
      "à¦®à¦°à¦¤": 2261,
      "à¦®à¦®à¦¨": 2262,
      "Ġà¦¬à¦¶": 2263,
      "Ġà¦¸à¦ªà¦°": 2264,
      "Ġà¦¸à¦°à¦¬": 2265,
      "à§ĭà¦Ĥ": 2266,
      "Ġà¦ªà¦¹": 2267,
      "à¦¸à¦Ĺ": 2268,
      "à¦¸à¦ªà¦¨": 2269,
      "à¦¸à¦ªà¦¤": 2270,
      "à¦¸à¦Ĩà¦ª": 2271,
      "Ġà¦Ĩà¦°à¦ķ": 2272,
      "Ġà¦Ĩà¦ªà¦¦": 2273,
      "Ġà¦Ĩà¦ĵà¦¡": 2274,
      "à¦Łà¦ĩ": 2275,
      "à¦Łà¦°à¦¸": 2276,
      "à¦Łà¦Ĩà¦ª": 2277,
      "à¦Ľà¦¤à¦²": 2278,
      "à¦ĩà¦¹": 2279,
      "à¦ĩà¦ķà¦°": 2280,
      "à¦¼à§ĩ'": 2281,
      "Ġà¦®à¦¬": 2282,
      "Ġà¦®à¦ĩ": 2283,
      "Ġà¦®à¦«": 2284,
      "Ġà¦®à¦°à¦¬": 2285,
      "Ġà¦®à¦«à¦¸": 2286,
      "à¦ªà¦ľ": 2287,
      "à¦ªà¦ªà¦¤": 2288,
      "Ġà¦¹à¦Ł": 2289,
      "Ġà¦¹à¦ĵ": 2290,
      "Ġà¦¹à¦ĩà¦¨": 2291,
      "à¦¶à¦Ŀ": 2292,
      "à¦ľà¦Ń": 2293,
      "à¦ľà¦Ĩà¦ª": 2294,
      "Ġà¦¤à¦ķ": 2295,
      "Ġà¦¤à¦®": 2296,
      "Ġà¦¤à¦ĸà¦¤": 2297,
      "Ġà¦¤à¦¦à¦¬": 2298,
      "à¦Ĺà¦Ń": 2299,
      "à¦·à¦¸": 2300,
      "à¦ĸà¦Ń": 2301,
      "à¦ĸà¦®à¦£": 2302,
      "à¦¡à¦²à¦ķ": 2303,
      "à¦¡à¦¸à¦Ń": 2304,
      "Ġà¦ħà¦°à¦ķ": 2305,
      "Ġà¦ħà¦ĺ": 2306,
      "Ġà¦ħà¦ļà¦²": 2307,
      "à¦§à¦¯": 2308,
      "à¦§à¦Ĺ": 2309,
      "Ġà¦ľà¦®à¦²": 2310,
      "à¦¹à¦°à¦ķ": 2311,
      "à¦¥à¦Ł": 2312,
      "à¦¥à¦ªà¦°": 2313,
      "à¦¥à¦ªà¦¤": 2314,
      "à¦¥à¦¦à¦£": 2315,
      "Ġà¦¯à¦¤à¦¬": 2316,
      "Ġà¦¶à¦ª": 2317,
      "Ġà¦¶à¦ļ": 2318,
      "à¦£à¦¬": 2319,
      "à¦£à¦Ĺ": 2320,
      "Ġà¦Ĺà¦Ĺà¦¨": 2321,
      "Ġà¦Ĺà¦ľà¦¬": 2322,
      "Ġà¦°à¦ĵà¦¯": 2323,
      "Ġà¦°à¦¤à¦¨": 2324,
      "Ġà¦Ńà¦Ĺà¦¨": 2325,
      "Ġà¦ıà¦ķà¦ķà¦Ń": 2326,
      "Ġà¦īà¦®": 2327,
      "Ġà¦ªà¦°à¦ª": 2328,
      "à¦łà¦¦": 2329,
      "à¦łà¦¶": 2330,
      "à¦łà¦ķà¦°": 2331,
      "à¦°à¦ķà¦¦": 2332,
      "à¦°à¦ķà¦Ł": 2333,
      "Ġà¦ħà¦¨à¦¶à¦¨": 2334,
      "à¦°à¦¤à¦ªà¦ķ": 2335,
      "Ġà¦ĩà¦®à¦¨": 2336,
      "Ġà¦ĩà¦¸à¦®": 2337,
      "Ġà¦§à¦®à¦ķ": 2338,
      "à¦¾à¦ģ-": 2339,
      "Ġà¦ľà¦¨à¦¬": 2340,
      "Ġà¦ľà¦¨à¦®": 2341,
      "Ġà¦Ĩà¦²à¦¹": 2342,
      "à§Īà¦ĥ": 2343,
      "Ġà¦Łà¦²à¦Ľ": 2344,
      "à¦°à¦£à¦ķ": 2345,
      "à¦¬à¦¨à¦Ĺà¦°": 2346,
      "Ġà¦¸à¦¬à¦ķà¦Ł": 2347,
      "Ġà¦ħà¦¬à¦¹": 2348,
      "Ġà¦ħà¦¬à¦Ĺà¦¤": 2349,
      "à¦ıà¦®à¦¨": 2350,
      "à¦°à¦®à¦¹": 2351,
      "Ġà¦¹à¦¤à¦Ń": 2352,
      "Ġà¦īà¦ªà¦¤": 2353,
      "à¦¦à¦ķà¦¦": 2354,
      "à¦Ĩà¦«": 2355,
      "à¦Ĩà¦°à¦¸": 2356,
      "à¦Ĩà¦¸à¦²": 2357,
      "à¦Ĩà¦ĩà¦ķ": 2358,
      "à¦Ĩà¦ĩà¦¡": 2359,
      "à¦ĺà¦¡": 2360,
      "à§¦à§«": 2361,
      "à§¦à§®": 2362,
      "à¦¬à¦²à¦¨": 2363,
      "à¦¬à¦²à¦ķ": 2364,
      "à¦¬à¦²à¦ĩ": 2365,
      "à¦ĩà¦¨à¦°": 2366,
      "Ġà¦Ĩà¦ľà¦®à¦¤": 2367,
      "Ġà¦Ŀà¦Łà¦ķ": 2368,
      "Ġà¦ĺà¦Łà¦¬": 2369,
      "Ġà¦ħà¦ªà¦¹à¦°à¦£": 2370,
      "à¦¦à¦¨à¦Ł": 2371,
      "Ġà¦ıà¦ķà¦ľà¦¨à¦ĩ": 2372,
      "Ġà§¨à§¦à§ªà§§": 2373,
      "à¦²à¦¤à¦²": 2374,
      "à§ªà§¬": 2375,
      "Ġà¦Ĳà¦¦": 2376,
      "Ġà¦Ĩà¦¦à¦®": 2377,
      "Ġà§©à§®": 2378,
      "Ġà¦ªà¦¥à¦ļà¦²": 2379,
      "à§¨à§§": 2380,
      "à§¨à§¬": 2381,
      "Ġà¦Ĺà¦£à¦ª": 2382,
      "Ġà¦Ĩà¦¤à¦¶à¦¬": 2383,
      "Ġà¦ĩà¦¤à¦¸": 2384,
      "à§©à§©": 2385,
      "à§©à§§": 2386,
      "à§¬à§¬": 2387,
      "Ġà¦Ĩà¦ĩà¦¨à¦ĵ": 2388,
      "Ġà¦Ĩà¦ĩà¦¨à¦Ĺà¦¤": 2389,
      "Ġà¦¶à¦¤à¦¤à¦®": 2390,
      "Ġà¦ªà¦¦à¦²": 2391,
      "Ġà¦ĩà¦¨à¦¡": 2392,
      "Ġà¦ĩà¦¨à¦Ń": 2393,
      "à¦¨à¦¬à¦¸à¦®": 2394,
      "Ġà¦ıà¦ķà¦ĩà¦¸": 2395,
      "Ġà§®à§ª": 2396,
      "Ġà§®à§¬": 2397,
      "Ġà¦Ĩà¦ªà¦¸": 2398,
      "à¦¸à¦¦à¦¦": 2399,
      "à¦ħà¦ª": 2400,
      "à¦ħà¦§": 2401,
      "Ġà¦ľà¦®à¦ľà¦®": 2402,
      "Ġà§§à§¦à§¦": 2403,
      "Ġà¦ľà¦²à¦ľ": 2404,
      "Ġà§ªà§¬": 2405,
      "Ġà§«à§ª": 2406,
      "Ġà§«à§«": 2407,
      "Ġà§«à§®": 2408,
      "Ġà¦Ńà¦¬à¦¨à¦Ł": 2409,
      "à¦ıà¦®à¦¡": 2410,
      "à¦ıà¦®à¦ĵà¦ĩà¦ī": 2411,
      "Ġà§¨à§¦à§¦à§©": 2412,
      "à¦¿'âĢĶ": 2413,
      "à§§à§©": 2414,
      "à§§à§®": 2415,
      "à§§à§Ń": 2416,
      "Ġà§¦à§§": 2417,
      "Ġà¦Ĩà¦¹à¦°à¦£": 2418,
      "Ġà§§à§¨à§«": 2419,
      "Ġà§§à§¯à§®à§¨": 2420,
      "Ġà¦·à¦·": 2421,
      "Ġà¦ıà¦®à¦ĵà¦ĩà¦ī": 2422,
      "Ġà¦°à¦ĵà¦¨": 2423,
      "Ġà§§à§®à§¨à§¦": 2424,
      "Ġà¦¦à¦®à¦ķà¦²": 2425,
      "à¦ĩà¦¦à¦¹": 2426,
      "Ġà§§à§¯à§Ńà§¬": 2427,
      "Ġà§§à§¯à§¬à§«": 2428,
      "à§§à§¯à§Ń": 2429,
      "à§§à§¯à§¯à§": 2430,
      "à§¨à§¦à§¨à§«": 2431,
      "Ġà§§à§¯à§ªà§Ń": 2432,
      "Ġà§§à§§à§«": 2433,
      "Ġà¦ĩà¦īà¦ıà¦¸à¦ı": 2434,
      "à¦¬à¦®à¦¹à¦²": 2435,
      "Ġà§¯à§¨": 2436,
      "Ġà§¯à§«": 2437,
      "Ġà¦ıà¦«à¦¡": 2438,
      "Ġà¦ľà¦Ĺà§İ": 2439,
      "à¦ķà¦ľà¦®à¦ķ": 2440,
      "Ġà¦°à¦¹à¦®à¦¤à¦īà¦²": 2441,
      "Ġà¦ªà¦Ļà¦ķ": 2442,
      "Ġà¦ļà¦®à§İà¦ķ": 2443,
      "Ġà¦®à¦ĸà¦®à¦²": 2444,
      "ĠâĢĶ": 2445,
      "à§į'": 2446,
      "à¦¨à¦®à¦¤": 2447,
      "à¦¨à¦°à¦¦": 2448,
      "à¦¨à¦īà¦²": 2449,
      "à¦¯à¦ĸ": 2450,
      "à¦¯à¦ķà¦²": 2451,
      "à¦¯à¦¸à¦®": 2452,
      "à¦¯à¦Łà¦ķ": 2453,
      "à¦¤à¦ľà¦¨": 2454,
      "à¦¤à¦ķà¦°": 2455,
      "à¦¤à¦¸à¦®": 2456,
      "à¦ķà¦ĸà¦¨": 2457,
      "à¦¬à¦°à¦¤": 2458,
      "Ġà¦ķà¦ļà¦²": 2459,
      "à§ģ?<": 2460,
      "à¦®à¦®à¦°": 2461,
      "Ġà¦¬à¦§": 2462,
      "Ġà¦¬à¦°à¦ķ": 2463,
      "Ġà¦¬à¦¦à¦®": 2464,
      "Ġà¦¸à¦Ł": 2465,
      "à¦¦à¦¯à¦¨": 2466,
      "Ġà¦ªà¦ľ": 2467,
      "Ġà¦Ĩà¦ŀ": 2468,
      "Ġà¦Ĩà¦¹à¦¬": 2469,
      "à¦Łà¦°à¦ķ": 2470,
      "à¦Łà¦Ĺà¦²": 2471,
      "à¦Ľà¦ĵ": 2472,
      "à¦ĩà¦ĵà¦¯": 2473,
      "Ġà¦ıà¦®à¦¬": 2474,
      "Ġà¦ıà¦¨à¦ľ": 2475,
      "Ġà¦¹à¦°à¦«": 2476,
      "à¦ľà¦ĩ": 2477,
      "à¦ľà¦Ļ": 2478,
      "Ġà¦¤à¦«": 2479,
      "Ġà¦¤à¦°à¦ķ": 2480,
      "Ġà¦¤à¦Ľà¦¨": 2481,
      "Ġà¦¤à¦Łà¦¸": 2482,
      "à¦Ĺà¦¶": 2483,
      "à¦·à¦Ļ": 2484,
      "à¦ĸà¦ĵ": 2485,
      "à¦ĸà¦ľà¦¨à¦ķ": 2486,
      "à¦¡à¦Ĺ": 2487,
      "Ġà¦ħà¦¤à¦¨": 2488,
      "Ġà¦ħà¦²à¦ķ": 2489,
      "Ġà¦ħà¦Ĺà¦¤": 2490,
      "Ġà¦ħà¦ĸà¦£": 2491,
      "à¦ļà¦ĸà¦ļ": 2492,
      "à¦¼à¦¾?<": 2493,
      "à¦§à¦ª": 2494,
      "à¦§à¦°à¦¦": 2495,
      "Ġà¦ľà¦ĺà¦¨": 2496,
      "à¦¹à¦Ń": 2497,
      "à¦¹à¦ĵà¦¯": 2498,
      "à¦¥à¦¸": 2499,
      "à¦¥à¦¹": 2500,
      "à¦¥à¦ķà¦°": 2501,
      "à¦¥à¦ķà¦¦": 2502,
      "à¦ĵà¦Ł": 2503,
      "à¦ĵà¦Ń": 2504,
      "à¦ĵà¦ķà¦¤": 2505,
      "Ġà¦¶à¦Ł": 2506,
      "Ġà¦¶à¦¤à¦¬": 2507,
      "Ġà¦¶à¦¤à¦ķ": 2508,
      "Ġà¦¶à¦ĵà¦ķà¦¤": 2509,
      "Ġà¦ļà¦¶à¦®": 2510,
      "à¦£à¦ł": 2511,
      "Ġà¦°à¦¤": 2512,
      "à¦Ńà¦¦": 2513,
      "Ġà¦ıà¦ķà¦°": 2514,
      "Ġà¦ĵà¦²": 2515,
      "Ġà¦ĵà¦²à¦Ł": 2516,
      "à¦«à¦¦": 2517,
      "à¦«à¦ĵ": 2518,
      "Ġà¦ªà¦°à¦²": 2519,
      "Ġà¦ªà¦°à¦¬": 2520,
      "Ġà¦Ľà¦«": 2521,
      "Ġà¦ĸà¦¸à¦¡": 2522,
      "Ġà¦ĸà¦ļà¦ĸà¦ļ": 2523,
      "Ġà¦¬à¦²à¦¯": 2524,
      "à¦łà¦ķà¦¦": 2525,
      "Ġà¦¸à¦®à¦¤à¦²": 2526,
      "à¦ľà¦¨à¦Ĺ": 2527,
      "à¦°à¦ķà¦ķ": 2528,
      "Ġà¦ıà¦ĩà¦Ń": 2529,
      "Ġà¦ħà¦¨à¦¸": 2530,
      "Ġà¦ħà¦¨à¦¡": 2531,
      "Ġà¦ħà¦¨à¦¬à¦°à¦¤": 2532,
      "à¦°à¦¤à¦¨": 2533,
      "Ġà¦ĩà¦®à¦¤": 2534,
      "Ġà¦ĩà¦¬à¦²": 2535,
      "Ġà¦§à¦¨à¦ķ": 2536,
      "à¦Ļà¦¤": 2537,
      "Ġà¦ľà¦¨à¦¸à¦Ń": 2538,
      "Ġà¦®à¦¨à¦¸": 2539,
      "à¦¤à¦°à¦ĵ": 2540,
      "Ġà¦¸à¦¬à¦¥": 2541,
      "à¦ıà¦ĸà¦¨": 2542,
      "à¦ıà¦®à¦ķ": 2543,
      "Ġà¦Ĩà¦Ĺà¦¨": 2544,
      "Ġà¦ķà¦¬à¦ľ": 2545,
      "Ġà¦ļà¦²à¦¨": 2546,
      "Ġà¦Ĩà¦¬à¦ķ": 2547,
      "Ġ('": 2548,
      "Ġ()": 2549,
      "à¦¶à¦¨à¦Ł": 2550,
      "à¦ķà¦²à¦ķ": 2551,
      "à¦Ĩà¦ļ": 2552,
      "à¦Ĩà¦§": 2553,
      "à¦Ĩà¦¹": 2554,
      "à¦Ĩà¦¨à¦¨": 2555,
      "à¦Ĩà¦ĩà¦¯": 2556,
      "à¦Ĩà¦ļà¦°à¦£": 2557,
      "à¦ĺà¦²": 2558,
      "à¦ĺà¦®": 2559,
      "Ġà¦ħà¦¸à¦Ļ": 2560,
      "à¦°à¦¸à¦¬": 2561,
      "à¦°à¦¸à¦¹": 2562,
      "à¦²à¦¨à¦ª": 2563,
      "Ġà¦Ŀà¦²à¦ķ": 2564,
      "Ġà¦īà¦¦à¦ĺ": 2565,
      "à¦°à¦¹à¦¨": 2566,
      "Ġà¦ķà¦®à¦ĩ": 2567,
      "à¦¦à¦¨à¦¸": 2568,
      "à¦¦à¦¨à¦ĵ": 2569,
      "à¦¤à¦ķà¦¦": 2570,
      "à¦°à¦¥à¦®à¦ľà¦¨": 2571,
      "à¦ĩà¦²à¦Ł": 2572,
      "Ġà¦ħà¦§à¦°": 2573,
      "Ġà¦ªà¦¥à¦ļ": 2574,
      "Ġà¦īà¦²à¦Ļ": 2575,
      "Ġà¦¨à¦¤à¦ľ": 2576,
      "Ġà¦ħà¦ªà¦°à¦ªà¦ķ": 2577,
      "Ġà¦ķà¦¤à¦Ĺ": 2578,
      "Ġà¦ªà¦¦à¦Ł": 2579,
      "Ġà¦ĩà¦¨à¦¬à¦ķ": 2580,
      "à¦¨à¦ªà¦ŀ": 2581,
      "à¦¤à¦¤à¦®": 2582,
      "Ġà¦ıà¦ķà¦ĩà¦Ń": 2583,
      "Ġà¦«à¦²à¦¶": 2584,
      "à§«à§Ń": 2585,
      "Ġà¦ıà¦ķà¦¬à¦Ľà¦°": 2586,
      "Ġà¦¬à¦¹à¦¨à¦ķ": 2587,
      "à¦¸à¦ķà¦Ĺ": 2588,
      "à¦ħà¦¬": 2589,
      "à¦°à¦¹à¦£à¦ķ": 2590,
      "Ġà§¨à§¦à§§à§§": 2591,
      "à§®à§Ń": 2592,
      "à¦¯à¦¸à¦Ń": 2593,
      "à¦°à¦«à¦¤": 2594,
      "Ġà¦ıà¦°à¦ªà¦°à¦ĩ": 2595,
      "à¦¬à¦¶à¦¤": 2596,
      "à¦Ĺà¦£à¦ķà¦¬": 2597,
      "Ġà§¦à§ª": 2598,
      "Ġà§§à§¯à§®à§§": 2599,
      "Ġà¦°à¦Ļà¦Ĺ": 2600,
      "à¦¨à¦®à¦£": 2601,
      "à¦¬à¦¹à¦¨": 2602,
      "Ġà¦Ĭà¦¨": 2603,
      "Ġà¦¸à¦«à¦²à¦ĵ": 2604,
      "Ġà¦ĩà¦īà¦¸": 2605,
      "à§§à§¯à§«": 2606,
      "à¦¾.)": 2607,
      "à¦®à¦®à¦Ń": 2608,
      "à¦Īà¦¦": 2609,
      "Ġà¦ĩà¦¨à¦«à¦°à¦®": 2610,
      "à§¨à§¦à§§à§«": 2611,
      "Ġà¦¨à¦Ĺà¦°à¦ª": 2612,
      "à¦ļà¦ªà¦¦à¦¸": 2613,
      "à¦Ĳà¦¤": 2614,
      "à¦Ĺà¦Ńà¦¬à¦¨": 2615,
      "Ġà¦¦à¦®à¦ķà¦²à¦ķà¦°": 2616,
      "Ġà¦¤à¦Ľà¦¨à¦Ľ": 2617,
      "-(": 2618,
      "ªà§¦": 2619,
      "Ġ;": 2620,
      "à¦Ĭ": 2621,
      "à¦°à¦ªà¦¨": 2622,
      "à¦¿:": 2623,
      "à§į-": 2624,
      "à¦¨à¦Ŀ": 2625,
      "à¦¨à¦ĺ": 2626,
      "à¦¨à¦ªà¦ķ": 2627,
      "à¦¨à§İà¦¸": 2628,
      "à¦¨à¦¸à¦ª": 2629,
      "à¦¨à¦¸à¦ķ": 2630,
      "à¦¯à¦¬à¦¨": 2631,
      "à¦¯à¦ĺ": 2632,
      "à¦¯à¦ľà¦¨à¦ķ": 2633,
      "à¦¤à¦¡": 2634,
      "à¦¤à¦¹": 2635,
      "à¦¤à¦Ļ": 2636,
      "à¦¤à¦®à¦¨": 2637,
      "à¦¤à¦¸à¦¹": 2638,
      "à¦ķà¦ĸ": 2639,
      "à¦ķà¦¶à¦ķ": 2640,
      "à¦ķà¦Ĺà¦ŀ": 2641,
      "à¦²à¦°à¦ķ": 2642,
      "à¦²à¦®à¦¨": 2643,
      "à¦²à¦ļà¦ķ": 2644,
      "à¦²à¦§à¦¨": 2645,
      "à¦²à¦ĺà¦°": 2646,
      "à¦¬à¦ķà¦Ł": 2647,
      "à¦¬à¦¸à¦²": 2648,
      "à¦¬à¦ªà¦ķ": 2649,
      "à¦¬à¦ĩà¦¯": 2650,
      "à¦¬à¦¦à¦°": 2651,
      "à¦¬à¦ļà¦ķ": 2652,
      "à¦¬à¦§à¦¬": 2653,
      "à¦®à¦ªà¦¤": 2654,
      "à¦®à¦¦à¦ķ": 2655,
      "à¦®à¦¸à¦¨": 2656,
      "à¦®à¦¶à¦¤": 2657,
      "Ġà¦¬à¦īà¦¯": 2658,
      "Ġà¦¸à¦¦à¦²": 2659,
      "à§ĭ),": 2660,
      "à¦¦à¦ĩ": 2661,
      "à¦¦à¦®à¦¨": 2662,
      "à¦¦à¦¨à¦¤": 2663,
      "à¦¦à¦²à¦ķ": 2664,
      "à¦¦à¦°à¦¦": 2665,
      "à¦¦à¦²à¦¨": 2666,
      "à¦¦à¦īà¦²": 2667,
      "Ġà¦ªà¦ļ": 2668,
      "Ġà¦ªà¦łà¦¨": 2669,
      "Ġà¦ªà¦Łà¦Ń": 2670,
      "à¦¸à¦¥": 2671,
      "à¦¸à¦°à¦¤": 2672,
      "à¦¸à¦ķà¦°": 2673,
      "à¦¸à¦¦à¦ķ": 2674,
      "à¦¸à¦°à¦¦": 2675,
      "à¦¸à¦¹à¦¸": 2676,
      "à¦¸à¦īà¦¦": 2677,
      "Ġà¦Ĩà¦°à¦¤": 2678,
      "Ġà¦Ĩà¦¶à¦ķ": 2679,
      "Ġà¦Ĩà¦Łà¦²": 2680,
      "Ġà¦Ĩà¦Łà¦¤": 2681,
      "Ġà¦¨à¦¸": 2682,
      "Ġà¦¨à¦®à¦¨": 2683,
      "à¦Łà¦¶": 2684,
      "à¦Łà¦ľ": 2685,
      "à¦Łà¦ľà¦¨": 2686,
      "à¦Łà¦¬à¦¦": 2687,
      "à¦Ľà¦¸": 2688,
      "à¦ĩà¦®à¦¸": 2689,
      "Ġà¦ıà¦ĸà¦¤": 2690,
      "Ġà¦¦à¦¹": 2691,
      "Ġà¦¦à¦Ĺà¦¦": 2692,
      "à¦¼à§ĩ)": 2693,
      "à¦¼à§ĩ?<": 2694,
      "Ġà¦®à¦°à¦²": 2695,
      "à¦ªà¦®": 2696,
      "à¦ªà¦®à¦¨": 2697,
      "à¦ªà¦ķà¦²": 2698,
      "Ġà¦¹à¦°à¦¹": 2699,
      "Ġà¦¹à¦ĩà¦¬": 2700,
      "Ġà¦¹à¦°à¦ķà¦²": 2701,
      "à¦¶à¦¸à¦¹": 2702,
      "à¦ľà¦ĵà¦¯": 2703,
      "à¦ľà¦°à¦Ł": 2704,
      "à¦ľà¦īà¦¦": 2705,
      "Ġà¦¤à¦¤à¦¬": 2706,
      "Ġà¦¤à¦ķà¦®": 2707,
      "Ġà¦ķà¦°à¦¬à¦°": 2708,
      "à¦Ĺà¦¸": 2709,
      "à¦Ĺà¦Ńà¦°": 2710,
      "à¦·à¦°à¦ķ": 2711,
      "à¦·à§İ": 2712,
      "à¦·à¦¦à¦°": 2713,
      "à¦·à¦¬à¦¯": 2714,
      "à¦ĸà¦¦à¦°": 2715,
      "à¦ĸà¦Ńà¦Ļ": 2716,
      "à¦¡à¦Ł": 2717,
      "à¦¡à¦ĩ": 2718,
      "à¦¡à¦ıà¦®": 2719,
      "Ġà¦ħà¦Ŀ": 2720,
      "Ġà¦ħà¦¯à¦¤": 2721,
      "à¦ļà¦ĩ": 2722,
      "à¦¼à¦¾!<": 2723,
      "à¦§à¦²": 2724,
      "à¦§à¦ĩ": 2725,
      "Ġà¦ľà¦²à¦¬": 2726,
      "à¦¹à¦Ĺ": 2727,
      "à¦¹à¦ĵ": 2728,
      "à¦¹à¦ł": 2729,
      "à¦ĵà¦¨à¦ķ": 2730,
      "Ġà¦¶à¦°à¦¤": 2731,
      "Ġà¦ļà¦ª": 2732,
      "à¦£à¦¯": 2733,
      "à¦£à¦¸": 2734,
      "à¦£à¦ĩ": 2735,
      "à¦£à¦ĵ": 2736,
      "à¦£à¦ķà¦°": 2737,
      "à¦£à¦ľà¦¯": 2738,
      "Ġà¦Ĺà¦¹à¦¨": 2739,
      "Ġà¦°à¦ľà¦¨": 2740,
      "Ġà¦°à¦ļà¦¯": 2741,
      "à¦Ńà¦°à¦¤": 2742,
      "à¦Ńà¦°à¦¶": 2743,
      "Ġà¦Ńà¦¬à¦²": 2744,
      "Ġà¦ıà¦ķà¦¹": 2745,
      "Ġà¦ıà¦ķà¦Ŀ": 2746,
      "Ġà¦ıà¦ķà¦¸à¦ª": 2747,
      "Ġà¦ĵà¦Ŀ": 2748,
      "Ġà¦ĵà¦¤à¦ª": 2749,
      "Ġà¦¥à¦°": 2750,
      "Ġà¦¥à¦®à¦ķ": 2751,
      "Ġà¦īà¦¸": 2752,
      "Ġà¦īà¦¸à¦²": 2753,
      "Ġà¦īà¦ĩà¦²": 2754,
      "Ġà¦īà¦Łà¦ķ": 2755,
      "Ġà¦īà¦¸à¦ķ": 2756,
      "Ġà¦²à¦ķà¦²à¦ķ": 2757,
      "à¦«à¦¥": 2758,
      "Ġà¦ªà¦°à¦Ĺà¦£": 2759,
      "Ġà¦Ľà¦¹": 2760,
      "Ġà¦ĸà¦²": 2761,
      "Ġà¦ĸà¦¨à¦¨": 2762,
      "Ġà¦ĸà¦¸à¦°": 2763,
      "Ġà¦«à¦¨": 2764,
      "Ġà¦«à¦ĸà¦°": 2765,
      "à¦łà¦Ĺ": 2766,
      "à¦ľà¦¨à¦°": 2767,
      "Ġà¦ħà¦¨à¦¬à¦¦": 2768,
      "Ġà¦ĩà¦ıà¦®à¦ķ": 2769,
      "Ġà¦§à¦ķ": 2770,
      "Ġà¦§à¦¬à¦§à¦¬": 2771,
      "Ġà¦Ĩà¦°à¦Ł": 2772,
      "à¦¼à¦¿'": 2773,
      "à¦¼à¦¿;": 2774,
      "à¦¼à¦¿à¦Ĥ": 2775,
      "Ġà¦ľà¦¨à¦ķà¦²": 2776,
      "à¦īà¦Łà¦ķ": 2777,
      "Ġà¦Ĩà¦²à¦¸": 2778,
      "Ġà¦Ĩà¦²à¦®à¦ķ": 2779,
      "à¦¬à¦°à¦¨à¦°": 2780,
      "Ġà¦¡à¦¨": 2781,
      "Ġà¦¡à¦ķ": 2782,
      "Ġà¦¡à¦Ĺ": 2783,
      "à¦¤à¦°à¦ª": 2784,
      "à¦¤à¦°à¦ªà¦¤": 2785,
      "à¦¬à¦¨à¦¬": 2786,
      "à¦¬à¦¨à¦ª": 2787,
      "à§İà¦¨": 2788,
      "à§İà¦«": 2789,
      "à§İà¦ªà¦°": 2790,
      "Ġà¦ħà¦¬à¦²": 2791,
      "à¦ŀà¦°": 2792,
      "à¦ŀà¦¦": 2793,
      "à¦ıà¦Ĺ": 2794,
      "à¦ıà¦ĸ": 2795,
      "à¦ıà¦ķà¦¬": 2796,
      "à¦ıà¦ķà¦¦": 2797,
      "à¦ıà¦Ĩà¦ĩ": 2798,
      "à¦ıà¦«à¦ķ": 2799,
      "à¦ıà¦¨à¦ĵ": 2800,
      "Ġà¦Ĩà¦Ĺà¦¤": 2801,
      "Ġà¦Ĩà¦Ĺà¦²": 2802,
      "§à§§": 2803,
      "à¦°à¦®à¦§": 2804,
      "Ġà¦ıà¦¸à¦ķà¦²": 2805,
      "à¦·à¦£à¦ķ": 2806,
      "à¦·à¦£à¦®": 2807,
      "Ġà¦īà¦ªà¦¢": 2808,
      "Ġà¦īà¦ªà¦°à¦¤à¦²": 2809,
      "à¦¤à¦¨à¦°": 2810,
      "à¦¤à¦¨à¦ķ": 2811,
      "à¦¤à¦¨à¦®": 2812,
      "à¦¤à¦¨à¦ĩ": 2813,
      "à¦¦à¦ķà¦®": 2814,
      "à¦ļà¦¨à¦ĵ": 2815,
      "Ġà¦¬à¦¸à¦¨": 2816,
      "à¦ķà¦Łà¦ķ": 2817,
      "à¦ķà¦Łà¦¸": 2818,
      "à¦Ĩà¦ķ": 2819,
      "à¦Ĩà¦Ĩ": 2820,
      "à¦Ĩà¦ĩà¦¨": 2821,
      "à¦Ĩà¦ĩà¦°": 2822,
      "à§¦à§¨": 2823,
      "à§¦à§¬": 2824,
      "à¦²à¦ķà¦ĩ": 2825,
      "à¦°à¦¦à¦ª": 2826,
      "Ġà¦ħà¦Ńà¦¯": 2827,
      "Ġà¦Ĩà¦¨à¦°": 2828,
      "Ġà¦Ĩà¦¨à¦¹": 2829,
      "Ġà¦Ĩà¦¨à¦«": 2830,
      "à¦ĸà¦²à¦¤": 2831,
      "Ġà¦¦à¦²à¦ĵ": 2832,
      "Ġà¦Ĩà¦ľà¦¹": 2833,
      "Ġà¦Ĩà¦ľà¦Ĺà¦°": 2834,
      "à¦¿à¦Ĥ,": 2835,
      "Ġà¦¸à¦°à¦²": 2836,
      "à¦²à¦¨à¦¸": 2837,
      "Ġà¦Ŀà¦Ł": 2838,
      "Ġà¦Ŀà¦¨à¦ķ": 2839,
      "Ġà¦Ŀà¦°à¦Ľ": 2840,
      "Ġà¦Ŀà¦Ĺà¦¡": 2841,
      "Ġà¦Ŀà¦¨à¦Ŀ": 2842,
      "à¦¯à¦®à¦£": 2843,
      "à¦¯à¦®à¦ŀ": 2844,
      "Ġà¦ħà¦ªà¦ļ": 2845,
      "Ġà¦ħà¦ªà¦Ľà¦¨": 2846,
      "à¦¤à¦¬à¦ķ": 2847,
      "Ġà¦¬à¦ĩà¦ķ": 2848,
      "à¦²à¦¤à¦ª": 2849,
      "Ġà¦¬à¦°à¦Ĺ": 2850,
      "Ġà¦¬à¦¨à¦ľ": 2851,
      "Ġà¦¬à¦¨à¦Ń": 2852,
      "à§ªà§¦": 2853,
      "à¦ªà¦ķà¦¥à¦¨": 2854,
      "Ġà¦ħà¦¬à¦¸à¦°à¦ª": 2855,
      "à§İà¦¸à¦ķà¦¦": 2856,
      "Ġà¦Ĩà¦¦à¦¤": 2857,
      "Ġà¦Ĩà¦¦à¦²": 2858,
      "à¦°à¦ĵà¦¶à¦¨": 2859,
      "à¦ªà¦¦à¦¸": 2860,
      "Ġà§©à§¨": 2861,
      "Ġà§©à§«": 2862,
      "à¦°à¦ļà¦²à¦¨": 2863,
      "à§¨à§¨": 2864,
      "à¦¦à¦°à¦Ń": 2865,
      "à¦¦à¦°à¦¬à¦¨": 2866,
      "Ġà¦ķà¦²à¦Ļ": 2867,
      "Ġà¦®à¦¹à§İ": 2868,
      "Ġà¦ĺà¦°à¦Ĺ": 2869,
      "Ġà¦Ĺà¦£à¦ķà¦¬à¦°": 2870,
      "Ġà¦¸à¦¤à¦¤": 2871,
      "Ġà§¨à§¦à§¨à§«": 2872,
      "à¦ĸà¦ķà¦ĵ": 2873,
      "à¦ĸà¦ķà¦¸à¦®": 2874,
      "Ġà¦ĵà¦ªà¦°à¦ĩ": 2875,
      "à¦°à¦ªà¦ŀ": 2876,
      "à¦°à¦¨à¦®": 2877,
      "à§§à§¦": 2878,
      "à§¬à§«": 2879,
      "à§Ńà§Ń": 2880,
      "à§Ńà§«": 2881,
      "Ġà¦Ĩà¦ĩà¦¨à¦ª": 2882,
      "Ġà¦ķà¦¤à¦ľà¦¨": 2883,
      "Ġà¦ªà¦¦à¦¦à¦²": 2884,
      "Ġà¦ªà¦¦à¦¦à¦²à¦¨": 2885,
      "à¦Ĺà¦²à¦ª": 2886,
      "à¦¬à¦ķà¦¨": 2887,
      "Ġà¦¶à¦¬à¦ľ": 2888,
      "Ġà¦¶à¦°à§İ": 2889,
      "à¦ļà¦²à¦ĵ": 2890,
      "Ġà¦¬à¦ķà¦ļ": 2891,
      "à¦®à¦¬à¦Ľà¦°": 2892,
      "à§«à§©": 2893,
      "à§«à§¬": 2894,
      "Ġà§®à§¨": 2895,
      "à¦ħà¦²": 2896,
      "à¦ħà¦¶": 2897,
      "à¦ħà¦¬à¦¨": 2898,
      "à¦ħà¦«à¦²": 2899,
      "à¦ķà¦ľà¦¨à¦ĵ": 2900,
      "à¦Ĺà¦®à¦ª": 2901,
      "Ġà§§à§¦à§Ń": 2902,
      "Ġà¦ľà¦²à¦ļ": 2903,
      "Ġà¦Ĺà¦¡à¦¸": 2904,
      "Ġà§ªà§ª": 2905,
      "Ġà§«à§¨": 2906,
      "Ġà§«à§¬": 2907,
      "à¦°à¦«à¦°": 2908,
      "Ġà¦¹à¦ķà¦ķ": 2909,
      "Ġà¦¸à¦ļà¦°": 2910,
      "Ġà¦¦à¦¶à¦¬": 2911,
      "Ġà¦¦à¦¶à¦ľà¦¨": 2912,
      "Ġà¦ħà¦Ĺà¦£à¦¨": 2913,
      "Ġà¦Ĩà¦§à¦ĺà¦£": 2914,
      "Ġà¦ĵà¦ĩà¦¸à¦¬": 2915,
      "à¦°à¦Ĺà¦łà¦¨": 2916,
      "Ġà¦ıà¦ķà¦¦à¦«": 2917,
      "à§ĩ'âĢĶ": 2918,
      "....": 2919,
      "Ġà§¬à§¦à§¦": 2920,
      "Ġà§¬à§¬": 2921,
      "Ġà§¬à§«": 2922,
      "Ġà§¬à§¯": 2923,
      "Ġà¦īà§İà¦ĸ": 2924,
      "Ġà¦īà§İà¦ªà¦¨": 2925,
      "à¦Ĩà¦ĩà¦ıà¦®à¦ıà¦«": 2926,
      "à¦¤à¦Ńà¦°": 2927,
      "Ġà¦®à¦ľà¦¬": 2928,
      "à¦ľà¦®à¦¹à¦²": 2929,
      "Ġà¦¦à¦ĸà¦²à¦¦": 2930,
      "Ġà¦ħà¦²à¦Ļ": 2931,
      "à¦ıà¦®à¦ıà¦ĩà¦ļ": 2932,
      "à§§à§ªà§¦": 2933,
      "à¦¬à¦¶à¦°": 2934,
      "à¦Ĺà¦£à¦¤à¦¨": 2935,
      "Ġà§Ńà§¬": 2936,
      "à¦¦à¦¶à¦®": 2937,
      "à¦ķà¦¸à¦ĩ": 2938,
      "à¦ķà¦¸à¦ĩà¦Ń": 2939,
      "Ġà¦Ĩà¦ļà¦®à¦ķ": 2940,
      "à¦¨à¦®à¦ľ": 2941,
      "à¦²à¦ªà¦®": 2942,
      "à¦®à¦Ĺà¦ľ": 2943,
      "Ġà¦īà¦ªà¦ķà¦°à¦£": 2944,
      "à¦ªà¦¥à¦ª": 2945,
      "à¦ªà¦¥à¦Ĺ": 2946,
      "Ġà¦Ĭà¦¨à¦ªà¦ŀ": 2947,
      "à¦¦à¦ªà¦¤à¦¨": 2948,
      "à¦Ĺà¦ľà¦Ĺ": 2949,
      "à¦Ĺà¦ľà¦ĵà¦¯": 2950,
      "Ġà§§à§¯à§¯à§§": 2951,
      "Ġà¦°à¦ĵà¦¶à¦¨à¦ķ": 2952,
      "Ġà¦°à¦ĵà¦¶à¦¨à¦ĵ": 2953,
      "à¦¬à¦ľà¦¨à¦¦": 2954,
      "Ġà¦īà§İà¦ªà¦²": 2955,
      "Ġà¦ıà¦ĩà¦ļà¦Ĩà¦ĩà¦Ń": 2956,
      "Ġà¦Ŀà¦°à¦Ŀà¦°": 2957,
      "Ġà¦¦à¦«à¦¤à¦°": 2958,
      "Ġà§¯à§¦à§¦": 2959,
      "Ġà§§à§«à§¦": 2960,
      "Ġà§§à§¯à§Ńà§«": 2961,
      "Ġà¦ķà¦¬à¦°à¦¸": 2962,
      "Ġà¦īà§İà¦¸à¦¬à¦®": 2963,
      "Ġà§§à§¯à§¬à§¦": 2964,
      "Ġà§§à§¯à§¬à§¬": 2965,
      "Ġà§§à§¯à§¬à§¯": 2966,
      "à¦ıà¦¨à¦ı": 2967,
      "à§¨à§¦à§¨à§©": 2968,
      "Ġà§§à§¯à§ªà§©": 2969,
      "Ġà§§à§¯à§ªà§«": 2970,
      "Ġà§§à§¯à§ªà§¯": 2971,
      "Ġà§§à§§à§©": 2972,
      "Ġà§§à§§à§Ń": 2973,
      "Ġà¦ĺà¦°à¦¬à¦¸à¦¤": 2974,
      "Ġà¦«à¦ľà¦²à¦¹à¦ķ": 2975,
      "Ġà§¨à§©à§ª": 2976,
      "Ġà§¨à§¨à§®": 2977,
      "Ġà§§à§¯à§«à§¦": 2978,
      "Ġà§ªà§Ńà§¦": 2979,
      "Ġà¦¸à§İà¦ªà¦¥": 2980,
      "à§¯à§§": 2981,
      "à¦Ĺà¦łà¦¨à¦ķ": 2982,
      "à§¨à§¦à§§à§ª": 2983,
      "à¦ıà¦ĩà¦ļà¦Ĩà¦ĩà¦Ń": 2984,
      "Ġà¦īà¦ĩà¦ķà¦²": 2985,
      "Ġà¦ħà¦¬à¦¨à¦¤": 2986,
      "à§§à§¯à§®à§¬": 2987,
      "à¦¥à¦ªà¦°à¦¤": 2988,
      "à§§à§¯à§Ńà§¬": 2989,
      "Ġà¦¬à¦°à¦ķà¦¤": 2990,
      "à§§à§¯à§«à§«": 2991,
      "à¦¨à¦¸à¦ªà¦Ł": 2992,
      "à¦¨à¦¸à¦ķà¦¨": 2993,
      "à¦®à¦¸à¦¨à¦¦": 2994,
      "à¦®à¦¶à¦¤à¦¬à¦°": 2995,
      "Ġà¦¸à¦¦à¦²à¦¬à¦²": 2996,
      "Ġà¦¦à¦Ĺà¦¦à¦Ĺ": 2997,
      "Ġà¦Ŀà¦¨à¦Ŀà¦¨": 2998,
      "¨à§©": 2999,
      "Ġà¦Ļ": 3000,
      "Ġà¦ŀ": 3001,
      "à§ĩà¦Ĥ": 3002,
      "à¦°à¦¡": 3003,
      "à¦°à¦¦à¦ķ": 3004,
      "à¦¨à¦ķà¦²": 3005,
      "à¦¨à¦°à¦¹": 3006,
      "à¦¨à¦¶à¦¤": 3007,
      "à¦¯à¦ļ": 3008,
      "à¦¯à¦«": 3009,
      "à¦¯à¦¸à¦¨": 3010,
      "à¦¯à¦¹à¦¤": 3011,
      "à¦¯à¦Łà¦¨": 3012,
      "à¦¯à¦Ĺà¦£": 3013,
      "à¦¯à¦ļà¦°": 3014,
      "à¦¤à¦¦à¦¨": 3015,
      "à¦¤à¦ļà¦²": 3016,
      "à¦ķà¦¸à¦¨": 3017,
      "à¦ķà¦¨à¦Ń": 3018,
      "à¦²à¦ªà¦¤": 3019,
      "à¦²à¦¤à¦ķ": 3020,
      "à¦²à¦¦à¦°": 3021,
      "à¦²à¦¸à¦Ł": 3022,
      "à¦¬à¦ªà¦°": 3023,
      "à¦¬à¦ļà¦¨": 3024,
      "à¦¬à¦ĺ": 3025,
      "à¦¬à¦ªà¦¦": 3026,
      "à¦¬à¦®à¦¯": 3027,
      "Ġà¦ķà¦ŀ": 3028,
      "à§ģà§į": 3029,
      "à¦®à¦Ŀ": 3030,
      "à¦®à¦²à¦ķ": 3031,
      "à¦®à¦ªà¦ķ": 3032,
      "à¦®à¦Ĺà¦°": 3033,
      "à¦®à¦®à¦¯": 3034,
      "Ġà¦¬à¦®": 3035,
      "Ġà¦¬à¦īà¦¦": 3036,
      "Ġà¦¬à¦Łà¦¬": 3037,
      "Ġà¦¬à¦ĸà¦°": 3038,
      "Ġà¦¸à¦Ĺ": 3039,
      "Ġà¦¸à¦¯à¦¤": 3040,
      "à¦¦à¦ķà¦°": 3041,
      "à¦¦à¦®à¦¤": 3042,
      "à¦¦à¦ĺ": 3043,
      "Ġà¦ªà¦Łà¦²": 3044,
      "à¦¸à¦ĵà¦¯": 3045,
      "à¦¸à¦°à¦²": 3046,
      "à¦¸à¦¯à¦ľ": 3047,
      "Ġà¦Ĩà¦¦à¦¨": 3048,
      "Ġà¦Ĩà¦ĩà¦²": 3049,
      "Ġà¦Ĩà¦ĸà¦ķ": 3050,
      "Ġà¦Ĩà¦ĩà¦«": 3051,
      "Ġà¦Ĩà¦īà¦¯": 3052,
      "Ġà¦¨à¦ª": 3053,
      "Ġà¦¨à¦°à¦¨": 3054,
      "Ġà¦¨à¦¸à¦°": 3055,
      "à¦Łà¦ĸ": 3056,
      "à¦Łà¦ļ": 3057,
      "à¦Łà¦®à¦°": 3058,
      "à¦Ľà¦¯": 3059,
      "à¦ĩà¦ªà¦°": 3060,
      "à¦ĩà¦ı": 3061,
      "à¦ĩà¦¶à¦Ł": 3062,
      "Ġà¦ıà¦¨à¦ķ": 3063,
      "Ġà¦ıà¦ıà¦¸à¦ª": 3064,
      "Ġà¦¦à¦®à¦ķ": 3065,
      "Ġà¦¦à¦°à¦Ĺ": 3066,
      "à¦¼à§ĩâĢĶ": 3067,
      "Ġà¦®à¦®": 3068,
      "Ġà¦®à¦Ĺ": 3069,
      "Ġà¦®à¦Ĺà¦¬": 3070,
      "Ġà¦®à¦Ĺà¦ľ": 3071,
      "à¦ªà¦ķà¦°": 3072,
      "Ġà¦¹à¦¡": 3073,
      "à¦¶à¦Ľ": 3074,
      "à¦¶à¦ļ": 3075,
      "à¦¶à¦ªà¦°": 3076,
      "à¦¶à¦¤à¦®": 3077,
      "à¦¶à¦²à¦Ł": 3078,
      "à¦ľà¦¤à¦¨": 3079,
      "à¦ľà¦¬à¦ķ": 3080,
      "à¦ľà¦ķà¦¦": 3081,
      "à¦ľà¦īà¦ķ": 3082,
      "à¦ľà¦ķà¦ķ": 3083,
      "Ġà¦ķà¦°à¦ľ": 3084,
      "à¦Ĺà¦¹": 3085,
      "à¦Ĺà¦ķà¦°": 3086,
      "à¦Ĺà¦¸à¦¹": 3087,
      "à¦Ĺà¦Ńà¦Ļ": 3088,
      "à¦·à¦¡": 3089,
      "à¦·à¦¹": 3090,
      "à¦·à¦ľà¦¨": 3091,
      "à¦·à¦¬à¦°à¦£": 3092,
      "à¦ĸà¦°à¦ļ": 3093,
      "à¦¡à¦«": 3094,
      "à¦¡à¦ľà¦¨": 3095,
      "à¦¡à¦¸à¦¹": 3096,
      "Ġà¦ħà¦¡": 3097,
      "Ġà¦ħà¦«à¦²": 3098,
      "à¦ļà¦ĵ": 3099,
      "à¦§à¦Ľ": 3100,
      "à¦§à¦ķà¦¦": 3101,
      "à¦§à¦ªà¦°à¦¬à¦°": 3102,
      "Ġà¦ľà¦®à¦ķ": 3103,
      "Ġà¦ľà¦ľà¦¬": 3104,
      "à¦¹à¦¦": 3105,
      "à¦¹à¦ķà¦°": 3106,
      "à¦¹à¦Ńà¦Ļ": 3107,
      "à¦¥à¦¦": 3108,
      "à¦¥à¦ĩ": 3109,
      "à¦ĵà¦Ĺ": 3110,
      "à¦ĵà¦¹": 3111,
      "à¦ĵà¦ĵ": 3112,
      "à¦ĵà¦¨à¦¦": 3113,
      "Ġà¦¶à¦¶": 3114,
      "Ġà¦¶à¦¬à¦¨": 3115,
      "Ġà¦ļà¦·": 3116,
      "Ġà¦ļà¦ŀ": 3117,
      "Ġà¦ļà¦°à¦Ł": 3118,
      "à¦£à¦¹": 3119,
      "à¦£à¦¬à¦¨": 3120,
      "à¦£à¦ªà¦¨": 3121,
      "Ġà¦Ĺà¦ª": 3122,
      "Ġà¦Ĺà¦Ĺà¦¨à¦¬": 3123,
      "Ġà¦°à¦¨": 3124,
      "Ġà¦°à¦Ł": 3125,
      "Ġà¦°à¦£": 3126,
      "Ġà¦°à¦Ĺà¦°": 3127,
      "Ġà¦°à¦£à¦¦": 3128,
      "à¦Ńà¦¸": 3129,
      "à¦Ńà¦ľà¦¨à¦ķ": 3130,
      "Ġà¦Ńà¦¡": 3131,
      "Ġà¦ıà¦ķà¦Ĺ": 3132,
      "Ġà¦ıà¦ķà¦ĸ": 3133,
      "Ġà¦ıà¦ķà¦ªà¦ķ": 3134,
      "Ġà¦ĵà¦ľ": 3135,
      "Ġà¦ĵà¦°à¦ķà¦®": 3136,
      "Ġà¦¥à¦ķ": 3137,
      "Ġà¦īà¦ĩà¦®": 3138,
      "Ġà¦²à¦¯": 3139,
      "Ġà¦²à¦£": 3140,
      "Ġà¦²à¦Ń": 3141,
      "à¦«à¦ª": 3142,
      "à¦«à¦°à¦ķ": 3143,
      "à¦«à¦²à¦ķ": 3144,
      "à¦«à¦¤à¦ķ": 3145,
      "à¦«à¦¸à¦¹": 3146,
      "Ġà¦ªà¦°à¦ĵà¦¯": 3147,
      "Ġà¦Ľà¦¤": 3148,
      "Ġà¦Ľà¦²": 3149,
      "Ġà¦Ľà¦Ł": 3150,
      "Ġà¦Ľà¦¬à¦ķ": 3151,
      "Ġà¦ĸà¦Ł": 3152,
      "Ġà¦ĸà¦¤à¦¨": 3153,
      "Ġà¦ĸà¦Łà¦ķ": 3154,
      "Ġà¦ĸà¦¤à¦®": 3155,
      "Ġà¦Ĩà¦®à¦ľ": 3156,
      "à¦łà¦®": 3157,
      "Ġà¦¸à¦®à¦§": 3158,
      "Ġà¦¸à¦®à¦ªà¦°": 3159,
      "à¦ľà¦¨à¦®": 3160,
      "à¦ľà¦¨à¦Ł": 3161,
      "Ġà¦ıà¦ĩà¦¬": 3162,
      "Ġà¦ħà¦¨à¦¤": 3163,
      "Ġà¦ħà¦¨à¦Ĺ": 3164,
      "à¦°à¦¤à¦ķ": 3165,
      "à¦°à¦¤à¦¬": 3166,
      "Ġà¦ĩà¦¹": 3167,
      "Ġà¦ĩà¦¬à¦°": 3168,
      "Ġà¦§à¦¡": 3169,
      "à¦®à¦¨à¦ķ": 3170,
      "à¦īà¦Ĺ": 3171,
      "à¦īà¦ªà¦¨": 3172,
      "à¦īà§İà¦¸": 3173,
      "à¦īà¦ĩà¦¯": 3174,
      "à¦īà¦īà¦®": 3175,
      "à¦ªà¦°à¦¸": 3176,
      "Ġà¦Ĩà¦²à¦Ł": 3177,
      "Ġà¦®à¦¨à¦Ł": 3178,
      "à¦¬à¦°à¦¦": 3179,
      "à¦¬à¦°à¦Ł": 3180,
      "Ġà¦Łà¦²": 3181,
      "Ġà¦Łà¦ķà¦Łà¦ķ": 3182,
      "à¦°à¦£à¦¬": 3183,
      "à¦°à¦£à¦Ł": 3184,
      "à¦°à¦£à¦ĩ": 3185,
      "à¦°à¦£à¦ª": 3186,
      "Ġà¦¹à¦²à¦¦": 3187,
      "à¦¬à¦¨à¦ĵ": 3188,
      "Ġà¦ıà¦°à¦®": 3189,
      "Ġà¦ıà¦¬à¦Ľà¦°": 3190,
      "Ġà¦ħà¦¬à¦¬": 3191,
      "Ġà¦§à¦°à¦¬": 3192,
      "à¦ıà¦¡": 3193,
      "à¦ıà¦®à¦ª": 3194,
      "à¦ıà¦ķà¦¶": 3195,
      "à¦Ŀà¦ŀ": 3196,
      "à¦°à¦¬à¦£": 3197,
      "à¦°à¦¬à¦¹à¦®": 3198,
      "Ġà¦®à¦¤à¦²à¦¬": 3199,
      "à¦°à¦®à¦¬à¦°": 3200,
      "Ġà¦ıà¦¸à¦ıà¦¸": 3201,
      "Ġà¦ıà¦¸à¦Ĩà¦ĩ": 3202,
      "Ġà¦ıà¦¸à¦ıà¦¸à¦¸": 3203,
      "à¦·à¦£à¦¤": 3204,
      "à¦·à¦£à¦ĵ": 3205,
      "Ġà¦¢à¦Ļ": 3206,
      "à¦¦à¦ķà¦ķ": 3207,
      "à¦®à¦¤à¦®": 3208,
      "Ġà¦¬à¦¸à¦Ľ": 3209,
      "à¦ķà¦²à¦®": 3210,
      "à¦ķà¦Łà¦²": 3211,
      "à¦Ĩà¦¸à¦¨": 3212,
      "à¦Ĩà¦ĩà¦Ł": 3213,
      "à¦Ĩà¦īà¦Ł": 3214,
      "à¦Ĩà¦īà¦²": 3215,
      "à¦ĺà¦ķ": 3216,
      "à¦ĺà¦¸": 3217,
      "à¦ĺà¦¬à¦¦": 3218,
      "à¦²à¦ķà¦ª": 3219,
      "à¦°à¦¦à¦²": 3220,
      "à¦°à¦¶à¦®à¦¨": 3221,
      "Ġà¦ħà¦Ńà¦¦": 3222,
      "à¦®à¦²à¦®à¦¤": 3223,
      "Ġà¦Ĩà¦¨à¦«à¦²": 3224,
      "Ġà¦ħà¦¸à¦Ń": 3225,
      "Ġà¦ħà¦¸à§İ": 3226,
      "Ġà¦ħà¦¸à¦¹à¦¯": 3227,
      "à¦°à¦¸à¦ľ": 3228,
      "à¦°à¦¸à¦Ń": 3229,
      "Ġà¦¦à¦²à¦¦": 3230,
      "Ġà¦¦à¦²à¦Ľ": 3231,
      "Ġà¦¦à¦²à¦Ĺà¦¤": 3232,
      "Ġà¦Ĩà¦ľà¦ĩ": 3233,
      "à¦²à¦¨à¦®": 3234,
      "Ġà¦Ŀà¦°à¦¤": 3235,
      "Ġà¦īà¦¦à¦Ĺ": 3236,
      "Ġà¦īà¦¦à¦Ń": 3237,
      "Ġà¦īà¦łà¦¬à¦¸": 3238,
      "Ġà¦ħà¦ªà¦ª": 3239,
      "à¦¤à¦¬à§İ": 3240,
      "à¦°à¦¹à¦¨à¦¨": 3241,
      "à¦°à¦¹à¦¸à¦¨": 3242,
      "à¦°à¦¥à¦®à¦¤": 3243,
      "Ġà¦¬à¦ĩà¦¬": 3244,
      "Ġà¦¬à¦ĩà¦ĵ": 3245,
      "Ġà¦ķà¦®à¦¸": 3246,
      "Ġà¦ķà¦®à¦Ľ": 3247,
      "à¦¦à¦¨à¦¶": 3248,
      "Ġà¦ıà¦ķà¦ľà¦¨à¦ĵ": 3249,
      "à¦¬à¦¬à¦Ļ": 3250,
      "à¦Ĺà¦¤à¦®": 3251,
      "Ġà¦ķà¦ĸà¦¨à¦ĩ": 3252,
      "à¦®à¦°à¦ĵ": 3253,
      "à¦ªà¦¦à¦ľà¦¨à¦ķ": 3254,
      "Ġà¦ªà¦¥à¦Ł": 3255,
      "à¦°à¦ļà¦°": 3256,
      "Ġà¦®à¦¹à¦¤": 3257,
      "Ġà¦Ĺà¦£à¦§": 3258,
      "Ġà¦Ĺà¦£à¦¹": 3259,
      "Ġà¦Ĺà¦£à¦«": 3260,
      "Ġà¦Ĺà¦£à¦ħà¦Ń": 3261,
      "Ġà¦ĵà¦ªà¦°à¦ĵà¦¯": 3262,
      "Ġà¦Ĩà¦¤à¦¤": 3263,
      "à¦°à¦ľà¦Ĺà¦¤": 3264,
      "Ġà§§à§¯à§¨à§©": 3265,
      "Ġà¦ķà¦¤à¦ľà¦¨à¦ķ": 3266,
      "Ġà¦ªà¦¦à¦¸": 3267,
      "Ġà¦ªà¦¦à¦ĵ": 3268,
      "Ġà¦ªà¦¦à¦¤à¦²": 3269,
      "Ġà¦ĩà¦¨à¦ľ": 3270,
      "à¦¾'-": 3271,
      "à¦¾'âĢĶ": 3272,
      "Ġà¦¸à¦Ńà¦¯": 3273,
      "Ġà¦¸à¦ķà¦²à¦ĩ": 3274,
      "à¦ķà¦¦à¦®": 3275,
      "Ġà¦īà¦ªà¦°à¦ĵ": 3276,
      "Ġà¦¬à¦ķà¦§": 3277,
      "à§«à§®": 3278,
      "Ġà§®à§§": 3279,
      "Ġà§®à§«": 3280,
      "à¦ļà¦ķà¦£": 3281,
      "à¦¸à¦ķà¦·": 3282,
      "à¦ħà¦¤": 3283,
      "à¦ħà¦Ļ": 3284,
      "à¦ħà¦¬à¦®": 3285,
      "à¦ħà¦ªà¦¬": 3286,
      "à¦¨à¦¦à¦¶": 3287,
      "à¦ķà¦ľà¦¨à¦ĩ": 3288,
      "à¦§à¦¨à¦Ĺ": 3289,
      "à¦¬à¦¦à¦°à¦¦": 3290,
      "à¦ıà¦¸à¦¡": 3291,
      "à¦ıà¦¸à¦ıà¦®": 3292,
      "à§®à§«": 3293,
      "Ġà¦Ĩà¦§à¦¶": 3294,
      "Ġà¦Ĩà¦§à¦®à¦°": 3295,
      "à¦¹à¦¬à¦¹": 3296,
      "à¦¨à¦¸à¦¤": 3297,
      "Ġà¦ħà¦ķà¦¸": 3298,
      "Ġà¦ħà¦ķà¦¥": 3299,
      "Ġà¦ıà¦ķà¦¦à¦®à¦ĩ": 3300,
      "Ġà¦ªà¦¦à¦ķà¦¬": 3301,
      "à¦®à¦ļà¦°": 3302,
      "Ġà¦ħà¦«à¦¸": 3303,
      "à¦ıà¦®à¦ĩà¦ī": 3304,
      "Ġà¦ĺà¦¨à¦ĺà¦¨": 3305,
      "Ġà§¨à§¦à§¦à§«": 3306,
      "à§§à§§": 3307,
      "Ġà¦Ĩà¦ĩà¦Ń": 3308,
      "Ġà§§à§¯à§®à§ª": 3309,
      "Ġà§§à§¯à§®à§¯": 3310,
      "Ġà¦ľà¦Ĺà¦¤à¦Ł": 3311,
      "Ġà¦Ĩà¦ļà¦°à¦¨": 3312,
      "Ġà¦ıà¦®à¦¡": 3313,
      "Ġà¦°à¦Ļà¦¶": 3314,
      "Ġà¦Ĩà¦Łà¦ĸ": 3315,
      "Ġà¦Ńà¦¬à¦ĺ": 3316,
      "à¦°à¦®à¦£à¦ķ": 3317,
      "à¦°à¦®à¦£à¦Ń": 3318,
      "à¦®à¦Ĺà¦ŀ": 3319,
      "à¦ªà¦¥à¦¯": 3320,
      "Ġà¦ĭà¦¤": 3321,
      "Ġà¦Ĩà¦«à¦ľ": 3322,
      "à¦²à¦¦à¦¸": 3323,
      "Ġà¦Ĭà¦¨à¦¸à¦¤": 3324,
      "à¦Ĺà¦ľà¦ªà¦¤": 3325,
      "Ġà§§à§¯à§¯à§«": 3326,
      "Ġà¦ĭà¦£à¦ĸ": 3327,
      "Ġà¦ľà¦¨à¦Ĺà¦£à¦ķ": 3328,
      "à¦¥à¦°à¦ĺ": 3329,
      "à§¨à§¦à§¦à§Ń": 3330,
      "à¦ķà¦°à¦£à¦¬": 3331,
      "Ġà¦Ĺà¦®à¦Ĺà¦®": 3332,
      "Ġà§§à§¯à§Ńà§Ń": 3333,
      "Ġà¦ķà¦¬à¦°à¦Ł": 3334,
      "Ġà§§à§ªà§ª": 3335,
      "Ġà¦Ķà¦°à¦¸à¦ľ": 3336,
      "à¦ĩà¦īà¦¤": 3337,
      "à¦¬à¦ľà¦Ńà¦Ļ": 3338,
      "Ġà§§à§¯à§ªà§®": 3339,
      "Ġà§§à§§à§¨": 3340,
      "à¦¯à¦®à¦¨à¦¸": 3341,
      "à§¯à§¨": 3342,
      "à§¯à§¯": 3343,
      "Ġà¦¸à¦¦à¦°à¦ĺ": 3344,
      "à§¨à§¦à§§à§§": 3345,
      "Ġà¦ķà¦®à¦¨à¦ĵà¦¯": 3346,
      "à¦§à¦¡à¦ľà¦¨": 3347,
      "Ġà¦īà¦ĩà¦¥": 3348,
      "Ġà¦ħà¦ªà¦¶à¦¨à¦Ł": 3349,
      "Ġà¦°à¦®à¦°à¦®": 3350,
      "Ġà¦¹à¦¤à¦Ńà¦®": 3351,
      "à¦Ĩà¦«à¦ľ": 3352,
      "à¦Ĩà¦«à¦Ĺ": 3353,
      "à¦ķà¦ĸà¦¨à¦ĵ": 3354,
      "Ġà¦ĵà¦²à¦Łà¦ª": 3355,
      "Ġà¦¶à¦¬à¦¨à¦®": 3356,
      "Ġà¦°à¦Ĺà¦°à¦Ĺ": 3357,
      "à¦ıà¦¸à¦ıà¦®à¦ıà¦®à¦ĩà¦ī": 3358,
      "'!<": 3359,
      "-à§ģ": 3360,
      "¨à§«": 3361,
      "©à§¦": 3362,
      "Ġ\"": 3363,
      "à¦¾à¦ĥ": 3364,
      "à§ĩ(": 3365,
      "à§ĩ:": 3366,
      "à¦°à¦°à¦®": 3367,
      "à¦°à¦ļà¦¨": 3368,
      "à¦°à¦°à¦¸": 3369,
      "à¦°à¦ıà¦ķà¦Ł": 3370,
      "à¦°à¦Ĩà¦ª": 3371,
      "à¦¿(": 3372,
      "à¦¿à¦¾": 3373,
      "à¦¿...": 3374,
      "à§į)": 3375,
      "à§į,": 3376,
      "à§į!<": 3377,
      "à¦¨à¦¥": 3378,
      "à¦¨à¦Ĺà¦¤": 3379,
      "à¦¨à¦¹à¦¤": 3380,
      "à¦¨à¦ªà¦¦à¦¸": 3381,
      "à¦¯à¦²": 3382,
      "à¦¯à¦¡": 3383,
      "à¦¯à¦ĸà¦¨": 3384,
      "à¦¯à¦ķà¦¤": 3385,
      "à¦¯à¦¦à¦²": 3386,
      "à¦¯à¦ĺà¦°": 3387,
      "à¦¯à¦ĺà¦¨": 3388,
      "à¦¯à¦ªà¦¤à¦¨": 3389,
      "à¦¤à¦ĸ": 3390,
      "à¦¤à¦§": 3391,
      "à¦¤à¦ªà¦°": 3392,
      "à¦¤à¦¬à¦°": 3393,
      "à¦¤à¦ªà¦¨": 3394,
      "à¦¤à¦¤à¦ķ": 3395,
      "à¦¤à¦®à¦¯": 3396,
      "à¦¤à¦ļà¦ķ": 3397,
      "à¦¤à¦²à¦Ł": 3398,
      "à¦ķà¦§": 3399,
      "à¦ķà¦®à¦¨": 3400,
      "à¦ķà¦®à¦ķ": 3401,
      "à¦ķà¦ªà¦ķ": 3402,
      "à¦ķà¦Ĺà¦¨": 3403,
      "à¦ķà¦ļà¦ķ": 3404,
      "à¦²à¦¤à¦°": 3405,
      "à¦²à¦ķà¦²": 3406,
      "à¦²à¦¤à¦¬": 3407,
      "à¦²à¦Łà¦¨": 3408,
      "à¦²à¦«à¦²": 3409,
      "à¦¼.": 3410,
      "à¦¼:": 3411,
      "à¦¼à¦ĥ": 3412,
      "à¦¼à§ģ-": 3413,
      "à¦¬à¦·": 3414,
      "à¦¬à¦ĸ": 3415,
      "à¦¬à¦¥": 3416,
      "à¦¬à¦ķà¦¬": 3417,
      "à¦¬à¦¹à¦¤": 3418,
      "à¦¬à¦¸à¦ª": 3419,
      "Ġà¦ķà¦ĸ": 3420,
      "Ġà¦ķà¦¹": 3421,
      "Ġà¦ķà¦«": 3422,
      "Ġà¦ķà¦Ļ": 3423,
      "Ġà¦ķà¦¤à¦¬": 3424,
      "Ġà¦ķà¦ĩà¦²": 3425,
      "Ġà¦ķà¦¦à¦²": 3426,
      "Ġà¦ķà¦ļà¦ķ": 3427,
      "Ġà¦ķà¦¨à¦ľ": 3428,
      "Ġà¦ķà¦ķà¦¶": 3429,
      "Ġà¦ķà¦ªà¦Ł": 3430,
      "Ġà¦ķà¦¦à¦¦": 3431,
      "à§ģ)": 3432,
      "à§ģ...": 3433,
      "à¦®à¦ľà¦²": 3434,
      "à¦®à¦īà¦¦": 3435,
      "à¦®à¦ıà¦ĩà¦ļ": 3436,
      "Ġà¦¬à¦ļ": 3437,
      "Ġà¦¬à¦®à¦¨": 3438,
      "Ġà¦¬à¦ªà¦¨": 3439,
      "Ġà¦¬à¦ķà¦°": 3440,
      "Ġà¦¬à¦°à¦¦": 3441,
      "Ġà¦¬à¦¹à¦®": 3442,
      "Ġà¦¬à¦ĸà¦¤": 3443,
      "Ġà¦¬à¦¬à¦¸": 3444,
      "Ġà¦¬à¦īà¦ľ": 3445,
      "Ġà¦¬à¦Łà¦ª": 3446,
      "Ġà¦¬à¦īà¦®": 3447,
      "Ġà¦¸à¦°à¦¦": 3448,
      "Ġà¦¸à¦ļà¦²": 3449,
      "Ġà¦¸à¦ļà¦ķ": 3450,
      "Ġà¦¸à¦ĩà¦¤": 3451,
      "à§ĭ:": 3452,
      "à¦¦à¦Ń": 3453,
      "à¦¦à¦ľà¦¨": 3454,
      "à¦¦à¦ĸà¦²": 3455,
      "à¦¦à¦¤à¦ķ": 3456,
      "à¦¦à¦²à¦Ĺ": 3457,
      "à¦¸à¦§": 3458,
      "à¦¸à¦¬à¦¨": 3459,
      "à¦¸à¦ŀ": 3460,
      "à¦¸à¦ķà¦²": 3461,
      "à¦¸à¦Łà¦ķ": 3462,
      "à¦¸à¦ķà¦¦": 3463,
      "à¦¸à¦ªà¦¤à¦¨": 3464,
      "Ġà¦Ĩà¦ľà¦¨": 3465,
      "Ġà¦Ĩà¦ĩà¦°": 3466,
      "Ġà¦Ĩà¦ĩà¦ķ": 3467,
      "Ġà¦Ĩà¦¬à¦°à¦£": 3468,
      "Ġà¦Ĩà¦īà¦Łà¦ķ": 3469,
      "Ġà¦¨à¦¶": 3470,
      "Ġà¦¨à¦ĸ": 3471,
      "Ġà¦¨à¦ļ": 3472,
      "Ġà¦¨à¦ĵ": 3473,
      "Ġà¦¨à¦²à¦ķ": 3474,
      "Ġà¦¨à¦¨à¦¦": 3475,
      "Ġà¦¨à¦¬à¦¦": 3476,
      "Ġà¦¨à¦Łà¦°": 3477,
      "Ġà¦¨à¦¹à¦°": 3478,
      "Ġà¦¨à¦īà¦ľ": 3479,
      "Ġà¦¨à¦ĸà¦°": 3480,
      "à¦Łà¦ķà¦°": 3481,
      "à¦Łà¦ķà¦²": 3482,
      "à¦Łà¦¸à¦®": 3483,
      "à¦Łà¦¸à¦ķ": 3484,
      "à¦Łà¦®à¦¸": 3485,
      "à¦Ľà¦Ľ": 3486,
      "à¦Ľà¦ĩ": 3487,
      "à¦Ľà¦¦à¦¶": 3488,
      "à¦ĩà¦ŀ": 3489,
      "à¦ĩà¦¤à¦¨": 3490,
      "à¦ĩà¦²à¦ķ": 3491,
      "à¦ĩà¦¶à¦¤": 3492,
      "à¦ĩà¦ľà¦ķ": 3493,
      "à¦ĩà¦§à¦¶": 3494,
      "Ġà¦ıà¦¥": 3495,
      "Ġà¦ıà¦®à¦¦": 3496,
      "Ġà¦ıà¦¨à¦¬": 3497,
      "Ġà¦ıà¦¨à¦Ń": 3498,
      "Ġà¦ıà¦ľà¦°": 3499,
      "Ġà¦ıà¦®à¦¸": 3500,
      "Ġà¦ıà¦ıà¦«": 3501,
      "Ġà¦ıà¦ıà¦ĩà¦ļ": 3502,
      "Ġà¦ıà¦ıà¦¸à¦Ĩà¦ĩ": 3503,
      "Ġà¦¦à¦ĸ": 3504,
      "Ġà¦®à¦°à¦¤": 3505,
      "Ġà¦®à¦°à¦®": 3506,
      "Ġà¦®à¦²à¦¯": 3507,
      "Ġà¦®à¦°à¦¸": 3508,
      "Ġà¦®à¦ĩà¦¨": 3509,
      "Ġà¦®à¦°à¦Ľ": 3510,
      "Ġà¦®à¦īà¦ķ": 3511,
      "Ġà¦®à¦²à¦®": 3512,
      "Ġà¦®à¦¶à¦²": 3513,
      "à¦ªà¦ª": 3514,
      "à¦ªà¦ĸ": 3515,
      "à¦ªà¦Ń": 3516,
      "à¦ªà¦ªà¦°": 3517,
      "à¦ªà¦¬à¦¤": 3518,
      "à¦ªà¦¸à¦¹": 3519,
      "à¦ªà¦«à¦²": 3520,
      "Ġà¦¹à¦°à¦¤": 3521,
      "Ġà¦¹à¦ķà¦¬": 3522,
      "Ġà¦¹à¦ĩà¦¤": 3523,
      "Ġà¦¹à¦ĩà¦Ľ": 3524,
      "à¦¶à¦¶": 3525,
      "à¦¶à¦ªà¦¤": 3526,
      "à¦¶à¦ķà¦Ł": 3527,
      "à¦¶à¦¦à¦²": 3528,
      "à¦¶à¦ľà¦¨à¦ķ": 3529,
      "à¦¶à¦ªà¦¥": 3530,
      "à¦¶à¦§à¦°": 3531,
      "à¦¶à¦¸à¦¦à¦¸": 3532,
      "à¦ľà¦°à¦ķ": 3533,
      "à¦ľà¦¬à¦¨": 3534,
      "à¦ľà¦ķà¦¤": 3535,
      "à¦ľà¦®à¦ķ": 3536,
      "à¦ľà¦¸à¦®": 3537,
      "à¦ľà¦¬à¦ª": 3538,
      "à¦ľà¦°à¦¨": 3539,
      "à¦ľà¦¬à¦¹": 3540,
      "à¦ľà¦Ĺà¦ŀ": 3541,
      "Ġà¦¤à¦ª": 3542,
      "Ġà¦¤à¦¹": 3543,
      "Ġà¦¤à¦ĵ": 3544,
      "Ġà¦¤à§İ": 3545,
      "Ġà¦¤à¦¸à¦¬": 3546,
      "Ġà¦¤à¦¸à¦¨": 3547,
      "Ġà¦¤à¦¸à¦¦": 3548,
      "Ġà¦¤à¦®à¦¸": 3549,
      "Ġà¦¤à¦¹à¦¬": 3550,
      "Ġà¦¤à¦²à¦ª": 3551,
      "Ġà¦¤à§İà¦ª": 3552,
      "à¦Ĺà¦¯": 3553,
      "à¦Ĺà¦«": 3554,
      "à¦Ĺà¦°à¦¤": 3555,
      "à¦Ĺà¦°à¦¦": 3556,
      "à¦Ĺà¦°à¦¸": 3557,
      "à¦Ĺà¦²à¦¤": 3558,
      "à¦Ĺà¦®à¦ķ": 3559,
      "à¦Ĺà¦¸à¦¨": 3560,
      "à¦Ĺà¦¹à¦¸": 3561,
      "à¦Ĺà¦¢": 3562,
      "à¦·à¦¶": 3563,
      "à¦·à¦§": 3564,
      "à¦·à¦°à¦¤": 3565,
      "à¦·à¦ªà¦°": 3566,
      "à¦ĸà¦®": 3567,
      "à¦ĸà¦¡": 3568,
      "à¦ĸà¦ķà¦Ł": 3569,
      "à¦¡à¦¦": 3570,
      "à¦¡à¦ľ": 3571,
      "à¦¡à¦¡": 3572,
      "à¦¡à¦¶à¦¨": 3573,
      "à¦¡à¦®à¦Ł": 3574,
      "Ġà¦ħà¦ľà¦¨": 3575,
      "Ġà¦ħà¦°à¦£": 3576,
      "Ġà¦ħà¦ĩà¦¯": 3577,
      "Ġà¦ħà¦ľà¦¯": 3578,
      "Ġà¦ħà¦¯à¦¥": 3579,
      "à¦ļà¦¦": 3580,
      "à¦ļà¦ª": 3581,
      "à¦ļà¦ĺ": 3582,
      "à¦ļà¦ķà¦¬": 3583,
      "à¦ļà¦¸à¦¹": 3584,
      "à¦ļà¦ĩà¦¡": 3585,
      "à¦ļà¦¦à¦¶": 3586,
      "à¦ļà¦Ĺà¦¡": 3587,
      "à¦§à§İ": 3588,
      "à¦§à¦¨à¦ķ": 3589,
      "à¦§à¦¬à¦¤": 3590,
      "Ġà¦ľà¦¤": 3591,
      "Ġà¦ľà¦ª": 3592,
      "Ġà¦ľà¦ŀ": 3593,
      "Ġà¦ľà¦²à¦¯": 3594,
      "Ġà¦ľà¦ĸà¦®": 3595,
      "à¦¹à¦ª": 3596,
      "à¦¹à¦ĸ": 3597,
      "à¦¹à¦ļ": 3598,
      "à¦¹à¦£": 3599,
      "à¦¹à¦ªà¦°": 3600,
      "à¦¹à¦ķà¦¦": 3601,
      "à¦¹à¦Ĩà¦ĩ": 3602,
      "à¦¹à¦Ĺà¦£": 3603,
      "à¦¹à¦¨à¦ĵ": 3604,
      "à¦¥à¦¡": 3605,
      "à¦¥à¦ĵ": 3606,
      "à¦¥à¦°à¦¸": 3607,
      "à¦¥à¦°à¦¨": 3608,
      "à¦¥à¦¬à¦¹": 3609,
      "à¦¥à¦ªà¦¥": 3610,
      "à¦¥à¦ķà¦¡": 3611,
      "à¦¥à¦¸à¦ļ": 3612,
      "Ġà¦¯à¦¬": 3613,
      "Ġà¦¯à¦®": 3614,
      "Ġà¦¯à¦ľ": 3615,
      "Ġà¦¯à¦¶à¦¸": 3616,
      "à¦ĵà¦ļ": 3617,
      "à¦ĵà¦ľà¦¨": 3618,
      "à¦ĵà¦°à¦«": 3619,
      "Ġà¦¶à¦®": 3620,
      "Ġà¦¶à¦°à¦¬à¦¤": 3621,
      "Ġà¦ļà¦Łà¦ķ": 3622,
      "à¦£à¦¸à¦®": 3623,
      "à¦£à¦¸à¦¹": 3624,
      "à¦Ĥà¦Ĥ": 3625,
      "Ġà¦Ĺà¦ļ": 3626,
      "Ġà¦Ĺà¦¹": 3627,
      "Ġà¦Ĺà¦ŀ": 3628,
      "Ġà¦Ĺà¦ľà¦²": 3629,
      "Ġà¦°à¦ľ": 3630,
      "Ġà¦°à¦Ĺ": 3631,
      "Ġà¦°à¦¡": 3632,
      "Ġà¦°à¦¥": 3633,
      "Ġà¦°à¦®à¦¨": 3634,
      "Ġà¦°à¦ī": 3635,
      "Ġà¦°à¦«à¦¤": 3636,
      "à¦Ńà¦²": 3637,
      "à¦Ńà¦¶": 3638,
      "à¦Ńà¦§": 3639,
      "à¦Ńà¦ĵ": 3640,
      "à¦Ńà¦°à¦£": 3641,
      "à¦Ńà¦¦à¦ķ": 3642,
      "à¦Ńà¦°à¦¯": 3643,
      "Ġà¦Ńà¦°à¦¤": 3644,
      "Ġà¦Ńà¦¨à¦Ń": 3645,
      "Ġà¦ıà¦ķà¦Ń": 3646,
      "Ġà¦ıà¦ķà¦«": 3647,
      "Ġà¦ıà¦ķà¦ĺ": 3648,
      "Ġà¦ıà¦ķà¦·à¦Ł": 3649,
      "Ġà¦¹à¦¯à¦°à¦¤à¦¬": 3650,
      "Ġà¦ĵà¦«": 3651,
      "Ġà¦¥à¦¡": 3652,
      "Ġà¦īà¦¥": 3653,
      "Ġà¦īà¦¶à¦ķ": 3654,
      "Ġà¦īà¦ĩà¦Ł": 3655,
      "Ġà¦īà¦§à¦¤": 3656,
      "Ġà¦īà¦ľà¦¬": 3657,
      "Ġà¦īà¦Ĺà¦¡": 3658,
      "Ġà¦²à¦°": 3659,
      "Ġà¦²à¦¬": 3660,
      "Ġà¦²à¦¸": 3661,
      "Ġà¦²à¦ŀ": 3662,
      "Ġà¦²à¦¬à¦Ļ": 3663,
      "à¦«à¦ĩ": 3664,
      "à¦«à¦¡": 3665,
      "à¦«à¦«": 3666,
      "à¦«à¦«à¦°": 3667,
      "Ġà¦ªà¦°à¦ľ": 3668,
      "Ġà¦ªà¦°à¦§à¦¨": 3669,
      "Ġà¦Ľà¦°": 3670,
      "Ġà¦Ľà¦ª": 3671,
      "Ġà¦Ľà¦²à¦ķ": 3672,
      "Ġà¦Ľà¦²à¦¨": 3673,
      "Ġà¦ĸà¦°à¦¸": 3674,
      "Ġà¦«à¦²à¦¨": 3675,
      "Ġà¦«à¦¬à¦¬": 3676,
      "Ġà¦«à¦²à¦Ĺ": 3677,
      "Ġà¦«à¦§à§İ": 3678,
      "Ġà¦¬à¦²à¦°": 3679,
      "Ġà¦¬à¦²à¦§": 3680,
      "Ġà¦Ĩà¦®à¦ķ": 3681,
      "Ġà¦Ĩà¦®à¦ª": 3682,
      "Ġà¦Ĩà¦®à¦Ĺ": 3683,
      "Ġà¦Ĩà¦®à¦°à¦£": 3684,
      "Ġà¦Ĩà¦®à¦²à¦ķ": 3685,
      "à§Ĥ-": 3686,
      "à¦łà¦ªà¦°": 3687,
      "à¦łà¦ķà¦²": 3688,
      "à¦łà¦®à¦ŀ": 3689,
      "Ġà¦¸à¦®à¦®à¦°": 3690,
      "Ġà¦¸à¦®à¦¬à¦¯": 3691,
      "à§ĥ-": 3692,
      "à§ĩ,-": 3693,
      "à¦ľà¦¨à¦¦": 3694,
      "à¦ľà¦¨à¦ª": 3695,
      "à¦ľà¦¨à¦ĵ": 3696,
      "à¦ľà¦¨à¦¸à¦®": 3697,
      "à¦°à¦ķà¦Ĺ": 3698,
      "à¦°à¦ķà¦£": 3699,
      "Ġà¦ıà¦ĩà¦¸": 3700,
      "Ġà¦ħà¦¨à¦°": 3701,
      "Ġà¦ħà¦¨à¦§": 3702,
      "à¦°à¦¤à¦¤": 3703,
      "à¦°à¦¤à¦ľ": 3704,
      "Ġà¦ĩà¦¤à¦°": 3705,
      "Ġà¦ĩà¦¨à¦ķ": 3706,
      "Ġà¦ĩà¦®à¦¦": 3707,
      "Ġà¦ĩà¦°à¦«": 3708,
      "Ġà¦ĩà¦¬à¦§": 3709,
      "Ġà¦ĩà¦¹à¦²": 3710,
      "Ġà¦ĩà¦®à¦ª": 3711,
      "Ġà¦ĩà¦īà¦²": 3712,
      "Ġà¦ĩà¦¹à¦ķ": 3713,
      "Ġà¦ĩà¦ĩà¦ī": 3714,
      "Ġà¦§à¦ķà¦²": 3715,
      "Ġà¦§à¦¹à¦«": 3716,
      "Ġà¦§à§İà¦¬": 3717,
      "Ġà¦Ĩà¦°à¦®": 3718,
      "Ġà¦Ĩà¦°à¦¦": 3719,
      "Ġà¦Ĩà¦°à¦«": 3720,
      "Ġà¦Ĩà¦°à¦ħ": 3721,
      "Ġà¦Ĩà¦°à¦Ĩà¦°": 3722,
      "Ġà¦Ĩà¦°à¦ıà¦«à¦ķ": 3723,
      "à¦¼à¦¿)": 3724,
      "à¦¼à¦¿?<": 3725,
      "à¦Ļà¦®": 3726,
      "à¦Ļà¦Ľ": 3727,
      "Ġà¦ľà¦¨à¦¸à¦¨": 3728,
      "Ġà¦ľà¦¨à¦¸à¦¹": 3729,
      "Ġà¦ĺà¦°à¦ķ": 3730,
      "à¦®à¦¨à¦¨": 3731,
      "à¦®à¦¨à¦Ń": 3732,
      "à¦īà¦£": 3733,
      "à¦īà§İ": 3734,
      "à¦īà¦°à¦¦": 3735,
      "à¦īà¦ĩà¦ķ": 3736,
      "à¦īà¦¸à¦ķ": 3737,
      "à¦īà¦Ĩà¦ĩ": 3738,
      "à¦īà¦Łà¦°": 3739,
      "à¦īà¦ĩà¦¦": 3740,
      "à¦īà¦ªà¦Ĺ": 3741,
      "à¦īà§İà¦ª": 3742,
      "Ġà¦Ĩà¦²à¦¬à§İ": 3743,
      "Ġà¦®à¦¨à¦¨": 3744,
      "Ġà¦®à¦¨à¦¯": 3745,
      "Ġà¦®à¦¨à¦¤": 3746,
      "Ġà¦®à¦¨à¦®à¦°": 3747,
      "Ġà¦®à¦¨à¦Ĺà¦¡": 3748,
      "à§¦à§¦à§§": 3749,
      "à¦¬à¦°à¦Ĺ": 3750,
      "à¦¬à¦°à¦¡": 3751,
      "à§Ī-": 3752,
      "Ġà¦¡à¦Łà¦ķ": 3753,
      "Ġà¦Łà¦¬": 3754,
      "Ġà¦Łà¦¨à¦Ł": 3755,
      "Ġà¦Łà¦°à¦¨": 3756,
      "Ġà¦Łà¦Ĺà¦¬": 3757,
      "Ġà¦Łà¦²à¦®à¦²": 3758,
      "à¦¤à¦°à¦¨": 3759,
      "à¦¤à¦°à¦ĸ": 3760,
      "à¦¤à¦°à¦ªà¦°": 3761,
      "Ġà¦Ĩà¦¸à¦ķ": 3762,
      "Ġà¦Ĩà¦¸à¦®": 3763,
      "Ġà¦Ĩà¦¸à¦¨à¦¬": 3764,
      "Ġà¦Ĩà¦¸à¦¨à¦¸": 3765,
      "Ġà¦ķà¦¥à¦¨": 3766,
      "à¦°à¦£à¦ĵ": 3767,
      "à¦°à¦£à¦ķà¦°": 3768,
      "à¦°à¦£à¦¬à¦¹": 3769,
      "Ġà¦¹à¦²à¦ª": 3770,
      "Ġà¦¹à¦²à¦«": 3771,
      "Ġà¦¹à¦²à¦ĺà¦°": 3772,
      "à¦¬à¦¨à¦¤": 3773,
      "à¦¬à¦¨à¦ĩ": 3774,
      "à¦¬à¦¨à¦ļà¦ķ": 3775,
      "à¦¬à¦¨à¦Ńà¦°": 3776,
      "à¦ªà¦¨à¦¹à¦¤": 3777,
      "à¦¨à¦¤à¦¤": 3778,
      "à¦¨à¦¤à¦ĵ": 3779,
      "Ġà¦¸à¦¬à¦¶": 3780,
      "Ġà¦¸à¦¬à¦ľ": 3781,
      "Ġà¦ıà¦¬à¦¯": 3782,
      "Ġà¦ıà¦¬à¦¡": 3783,
      "à§İà¦ĩ": 3784,
      "à§İà¦«à¦°": 3785,
      "Ġà¦ħà¦¬à¦¯": 3786,
      "Ġà¦ħà¦¬à¦Ĺ": 3787,
      "Ġà¦ħà¦¬à¦¤à¦°à¦¨": 3788,
      "Ġà¦Ĩà¦Ľà¦¨": 3789,
      "à¦ıà¦Ł": 3790,
      "à¦ıà¦¶": 3791,
      "à¦ıà¦¥": 3792,
      "à¦ıà¦®à¦¸": 3793,
      "Ġà¦Ĩà¦Ĺà¦°à¦ª": 3794,
      "Ġà¦Ĩà¦Ĺà¦°à¦¤à¦²": 3795,
      "à¦Ŀà¦®": 3796,
      "à¦ķà¦°à¦ª": 3797,
      "à¦ķà¦°à¦ŀ": 3798,
      "à¦°à¦¬à¦ķ": 3799,
      "à¦°à¦¬à¦ľ": 3800,
      "à¦°à¦¬à¦Ĺ": 3801,
      "Ġà¦®à¦¤à¦¨à¦¸": 3802,
      "§à§©": 3803,
      "à¦°à¦®à¦²": 3804,
      "à¦°à¦®à¦¬": 3805,
      "à¦°à¦®à¦°à¦¤": 3806,
      "Ġà¦ıà¦¸à¦ª": 3807,
      "Ġà¦ıà¦¸à¦ķà¦°": 3808,
      "Ġà¦ıà¦¸à¦¬à¦ķ": 3809,
      "Ġà¦ıà¦¸à¦ĵà¦ĩà¦ī": 3810,
      "à¦·à¦£à¦¸": 3811,
      "à¦·à¦£à¦Ń": 3812,
      "à¦·à¦£à¦ľà¦¨": 3813,
      "à¦·à¦£à¦®à¦¨": 3814,
      "Ġà¦īà¦ªà¦¬": 3815,
      "Ġà¦īà¦ªà¦ªà¦°": 3816,
      "Ġà¦īà¦ªà¦¦à¦²": 3817,
      "Ġà¦īà¦ªà¦ľà¦²": 3818,
      "Ġ(,": 3819,
      "Ġ(à§į": 3820,
      "à¦¶à¦¨à¦ķ": 3821,
      "à¦¶à¦¨à¦¸": 3822,
      "à¦ªà¦¤à¦¤": 3823,
      "à¦¯à¦¬à¦¯": 3824,
      "à¦¯à¦¬à¦¦": 3825,
      "à¦¤à¦¨à¦¶": 3826,
      "à¦¦à¦ķà¦¸": 3827,
      "à¦ļà¦¨à¦¦": 3828,
      "à¦ļà¦¨à¦¯à¦ľ": 3829,
      "à¦¾-à¦¿": 3830,
      "Ġà¦¬à¦¸à¦¤à¦¬": 3831,
      "Ġà¦¬à¦¸à¦¤à¦Ń": 3832,
      "à¦ķà¦Łà¦ª": 3833,
      "à¦ķà¦Łà¦¬à¦°": 3834,
      "à¦ķà¦Łà¦®à¦¯": 3835,
      "à¦Ĩà¦Ł": 3836,
      "à¦Ĩà¦Ļ": 3837,
      "à¦Ĩà¦¹à¦®": 3838,
      "à¦Ĩà¦°à¦ĩ": 3839,
      "à¦Ĩà¦²à¦¬": 3840,
      "à¦Ĩà¦¨à¦Ń": 3841,
      "à¦Ĩà¦ľà¦®": 3842,
      "à¦Ĩà¦ľà¦ķ": 3843,
      "à¦Ĩà¦¶à¦¯": 3844,
      "à¦Ĩà¦īà¦ľ": 3845,
      "à¦Ĩà¦¦à¦¬": 3846,
      "à¦Ĩà¦¶à¦°": 3847,
      "à¦ĺà¦·": 3848,
      "à¦ĺà¦ĵ": 3849,
      "à¦ĺà¦°à¦ķ": 3850,
      "à¦ĺà¦²à¦Ĺ": 3851,
      "à¦ĺà¦¦à¦²": 3852,
      "à¦ĺà¦°à¦Ń": 3853,
      "à§¦à§ª": 3854,
      "à¦¬à¦²à¦¬": 3855,
      "à¦¬à¦²à¦¤à¦°": 3856,
      "à¦²à¦ķà¦¨": 3857,
      "à¦²à¦ķà¦¬": 3858,
      "à¦²à¦ķà¦Ĺ": 3859,
      "à¦°à¦¦à¦¦": 3860,
      "à¦°à¦¶à¦ķ": 3861,
      "à¦°à¦¶à¦®": 3862,
      "Ġà¦ıà¦®à¦¨à¦¤à¦°": 3863,
      "Ġà¦ıà¦®à¦¨à¦¸à¦¬": 3864,
      "Ġà¦Ĩà¦ªà¦¨à¦ľà¦¨à¦ķ": 3865,
      "à¦°à¦¸à¦®": 3866,
      "à¦°à¦¸à¦¦à¦¸": 3867,
      "à¦ĸà¦²à¦¨": 3868,
      "à¦ĩà¦¨à¦ķ": 3869,
      "à¦ĩà¦¨à¦Ł": 3870,
      "Ġà¦¦à¦²à¦¨": 3871,
      "Ġà¦¦à¦²à¦¸": 3872,
      "Ġà¦¦à¦²à¦ªà¦¤": 3873,
      "Ġà¦Ĩà¦ľà¦°": 3874,
      "Ġà¦Ĩà¦ľà¦¬": 3875,
      "Ġà¦Ĩà¦ľà¦®à¦ķ": 3876,
      "à¦¿à¦Ĥ'": 3877,
      "à¦¿à¦Ĥ)": 3878,
      "à¦¿à¦Ĥà§į": 3879,
      "Ġà¦¸à¦°à¦¯": 3880,
      "à¦²à¦¨à¦Ł": 3881,
      "à¦²à¦¨à¦ķà¦ķ": 3882,
      "à¦²à¦¨à¦²à¦ļ": 3883,
      "à¦ķà¦¤à¦ķ": 3884,
      "à¦¼à§ĭ'": 3885,
      "à¦¼à§ĭ-": 3886,
      "à¦¯à¦®à¦Ł": 3887,
      "à¦¯à¦®à¦ĩ": 3888,
      "à¦¯à¦®à¦ķà¦°": 3889,
      "Ġà¦ħà¦ªà¦¶à¦¬": 3890,
      "à¦¤à¦¬à¦¬": 3891,
      "à¦¤à¦¬à¦¦à¦²": 3892,
      "à¦°à¦¯à¦¨": 3893,
      "à¦°à¦¹à¦¬à¦¶à¦¤": 3894,
      "Ġà¦ķà¦®à¦°": 3895,
      "Ġà¦ķà¦®à¦¬": 3896,
      "Ġà¦ķà¦®à¦¬à¦¯": 3897,
      "à¦¦à¦¨à¦¬": 3898,
      "à¦¦à¦¨à¦¹": 3899,
      "à¦¦à¦¨à¦ľà¦Ĺà¦¤": 3900,
      "à¦¸à¦¬à¦¹": 3901,
      "à¦¤à¦ķà¦ª": 3902,
      "à¦¤à¦ķà¦¡": 3903,
      "à¦¤à¦ķà¦¸à¦®": 3904,
      "à¦ĸà¦¤à¦¤": 3905,
      "Ġà§¨à§¦à§©à§¦": 3906,
      "à¦²à¦¤à¦ı": 3907,
      "Ġà¦¬à¦°à¦·": 3908,
      "Ġà¦¬à¦°à¦ĸ": 3909,
      "Ġà¦¬à¦¨à¦²à¦¤": 3910,
      "à¦¬à¦¬à¦¹": 3911,
      "à¦°à¦¥à¦®à¦Ł": 3912,
      "à¦°à¦¥à¦®à¦Ń": 3913,
      "Ġà¦¸à¦¨à§İ": 3914,
      "Ġà¦¸à¦¨à¦¦à¦ķ": 3915,
      "Ġà¦ıà¦¤à¦ĩ": 3916,
      "Ġà¦ıà¦¤à¦¸à¦¬": 3917,
      "à¦¨à¦¨à¦ķ": 3918,
      "à¦ĩà¦²à¦ľ": 3919,
      "à§ªà§ª": 3920,
      "à§ªà§¨": 3921,
      "à§ªà§©": 3922,
      "à§ªà§¯": 3923,
      "Ġà¦¸à¦¹à¦°": 3924,
      "Ġà¦¸à¦¹à¦Ĺ": 3925,
      "Ġà¦¸à¦¹à¦§à¦°": 3926,
      "Ġà¦ķà¦°à¦¬à¦ĩ": 3927,
      "à¦ªà¦ķà¦ĵ": 3928,
      "à¦¶à¦ķà¦ķ": 3929,
      "à¦¶à¦ķà¦ª": 3930,
      "à¦¶à¦ķà¦ĵ": 3931,
      "Ġà¦Ĳà¦Ł": 3932,
      "Ġà¦Ĳà¦ļ": 3933,
      "Ġà¦Ĳà¦¹": 3934,
      "Ġà¦Ĩà¦¶à¦«": 3935,
      "à¦²à¦Ĺà¦°": 3936,
      "Ġà¦Ĩà¦ķà¦¬": 3937,
      "à¦ĭà¦¤à¦ĵ": 3938,
      "à§İà¦¸à¦ķà¦°": 3939,
      "à¦ķà¦¬à¦ľ": 3940,
      "Ġà¦Ĩà¦¦à¦²à¦¤": 3941,
      "à¦ªà¦¦à¦ĵ": 3942,
      "à¦ªà¦¦à¦®à¦¨": 3943,
      "à¦ªà¦¦à¦¸à¦¹": 3944,
      "Ġà¦ıà¦²à¦ľ": 3945,
      "Ġà§©à§¦à§¦": 3946,
      "Ġà§©à§¦à§¦à§¦": 3947,
      "Ġà§©à§¨à§©": 3948,
      "Ġà§©à§¨à§«": 3949,
      "Ġà§©à§«à§¦": 3950,
      "à¦¸à¦®à¦¬": 3951,
      "à¦¸à¦®à¦¸": 3952,
      "Ġà¦Ĺà¦²à¦¬": 3953,
      "à¦¸à¦¨à¦¬": 3954,
      "Ġà¦ªà¦¥à¦¨": 3955,
      "Ġà¦ªà¦¥à¦¬": 3956,
      "Ġà¦ªà¦¥à¦¶": 3957,
      "à§¨à§®": 3958,
      "à§¨à§¦à§¦à§¦": 3959,
      "à§¨à§¯": 3960,
      "à§¨à§¨à§©": 3961,
      "à¦¬à¦¤à¦ª": 3962,
      "Ġà¦ķà¦²à¦°à¦¬": 3963,
      "Ġà¦®à¦¹à¦¸": 3964,
      "Ġà¦ĺà¦°à¦Ľ": 3965,
      "Ġà¦Ĺà¦£à¦¨": 3966,
      "Ġà¦Ĺà¦£à¦¶": 3967,
      "Ġà¦Ĺà¦£à¦Ĩà¦¦": 3968,
      "Ġà§¨à§¦à§¨à§¬": 3969,
      "à¦¯à¦¤à¦ĩ": 3970,
      "Ġà¦ĵà¦ªà¦°à¦¸": 3971,
      "à¦ĩà¦ķà¦¶": 3972,
      "Ġà¦ĩà¦¤à¦¸à¦¸": 3973,
      "à§©à§ª": 3974,
      "à¦°à¦¨à¦¯": 3975,
      "à¦°à¦¨à¦¦": 3976,
      "à§§à§¦à§¦": 3977,
      "à§§à§¦à§¨": 3978,
      "à¦®à¦¦à¦²": 3979,
      "à¦®à¦¦à¦²à¦Ĺ": 3980,
      "à§¬à§Ń": 3981,
      "à§Ńà§¨": 3982,
      "à§Ńà§§": 3983,
      "à§Ńà§¬": 3984,
      "à§Ńà§®": 3985,
      "à¦·à¦¤à¦Ł": 3986,
      "Ġà¦Ĩà¦ĩà¦¨à¦¬": 3987,
      "Ġà§§à§¯à§§à§§": 3988,
      "à¦¬à¦¸à¦¹": 3989,
      "à¦¬à¦¸à¦ŀ": 3990,
      "Ġà¦ħà¦ªà¦°à¦¦": 3991,
      "Ġà¦¶à¦¤à¦ľà¦¨": 3992,
      "Ġà¦ķà¦¤à¦ĸ": 3993,
      "Ġà¦ķà¦¤à¦®à¦¤": 3994,
      "Ġà¦ªà¦¦à¦ª": 3995,
      "Ġà¦ªà¦¦à¦Ĺ": 3996,
      "Ġà¦ªà¦¦à¦Ń": 3997,
      "Ġà¦ĩà¦¨à¦ļ": 3998,
      "Ġà¦ªà¦¤à¦ªà¦¤": 3999,
      "à¦Ĺà¦²à¦ľà¦¨à¦ķ": 4000,
      "à¦¬à¦ķà¦¹": 4001,
      "Ġà¦¶à¦°à§İà¦ķ": 4002,
      "Ġà¦¯à¦¤à¦¸": 4003,
      "Ġà¦¯à¦¤à¦ľà¦¨": 4004,
      "à¦¨à¦¬à¦¦": 4005,
      "à¦¨à¦¬à¦Ľà¦°": 4006,
      "à¦¨à¦¬à¦¦à¦²": 4007,
      "à¦Ńà¦¬à¦ĩ": 4008,
      "à¦Ńà¦¬à¦ªà¦°": 4009,
      "à¦°à¦Ľà¦¡": 4010,
      "à¦¹à¦¸à¦Ł": 4011,
      "à¦¹à¦¸à¦ĵ": 4012,
      "à¦¤à¦¤à¦¤": 4013,
      "Ġà¦¬à¦ķà¦Ľ": 4014,
      "Ġà¦«à¦²à¦ĵ": 4015,
      "à§«à§ª": 4016,
      "à¦Łà¦¨à¦¦": 4017,
      "à¦¸à¦°à¦«": 4018,
      "Ġà§®à§¦à§¦": 4019,
      "Ġà§®à§©": 4020,
      "Ġà§®à§®": 4021,
      "Ġà§®à§¯": 4022,
      "Ġà¦Ĩà¦ªà¦¸à¦°à¦«": 4023,
      "Ġà¦¬à¦¹à¦°": 4024,
      "Ġà¦¬à¦¹à¦¨à¦¯": 4025,
      "Ġà¦¶à¦ķà¦ĵ": 4026,
      "à¦¸à¦¦à¦¸à¦¦à¦¸": 4027,
      "à¦¸à¦ķà¦¦à¦²": 4028,
      "à¦ħà¦ļ": 4029,
      "à¦ħà¦ªà¦°": 4030,
      "à¦ħà¦¸à¦¹": 4031,
      "à¦ħà¦ķà¦¥": 4032,
      "à¦ħà¦§à¦®": 4033,
      "à¦ħà¦ªà¦°à¦ķ": 4034,
      "à¦ħà¦²à¦Ļ": 4035,
      "Ġà¦¸à¦¦à¦°à¦¦à¦ª": 4036,
      "à¦§à¦¬à¦¦": 4037,
      "à¦¸à¦¹à¦¬": 4038,
      "à¦¨à¦¦à¦ľ": 4039,
      "à¦¨à¦¦à¦°à¦¬": 4040,
      "à¦¹à¦«à¦ĵ": 4041,
      "Ġà¦ħà¦¥à¦°": 4042,
      "à¦§à¦¨à¦®": 4043,
      "à¦§à¦¨à¦ĵ": 4044,
      "Ġà¦¤à¦°à¦Ļ": 4045,
      "Ġà¦ľà¦®à¦Ľ": 4046,
      "Ġà§§à§¦à§¯": 4047,
      "Ġà¦¹à¦łà¦ķ": 4048,
      "Ġà¦ľà¦²à¦§": 4049,
      "Ġà¦ľà¦²à¦ĺ": 4050,
      "Ġà¦ľà¦²à¦ļà¦°": 4051,
      "Ġà¦ıà¦¨à¦«": 4052,
      "à¦ıà¦¸à¦Ł": 4053,
      "à¦ıà¦¸à¦ıà¦¸": 4054,
      "à¦ķà¦¨à¦«": 4055,
      "à§®à§¦": 4056,
      "à§®à§ª": 4057,
      "à§®à§®": 4058,
      "à¦łà¦ķà¦ķ": 4059,
      "à¦łà¦ķà¦®": 4060,
      "à¦łà¦ķà¦Ĺ": 4061,
      "à¦¨à¦®à¦¨à¦¸": 4062,
      "Ġà§ªà§¦à§¦": 4063,
      "Ġà§ªà§©": 4064,
      "Ġà§ªà§§": 4065,
      "Ġà§ªà§¯": 4066,
      "Ġà§ªà§ªà§®": 4067,
      "Ġà§ªà§¦à§©": 4068,
      "Ġà§ªà§¨à§ª": 4069,
      "Ġà§ªà§¨à§Ń": 4070,
      "Ġà§ªà§©à§©": 4071,
      "Ġà§ªà§®à§ª": 4072,
      "Ġà§«à§§": 4073,
      "Ġà§«à§¯": 4074,
      "Ġà§«à§¦à§¯": 4075,
      "Ġà§«à§¬à§¬": 4076,
      "Ġà§«à§¦à§¬": 4077,
      "Ġà§«à§¯à§¨": 4078,
      "à¦¯à¦°à¦ŀ": 4079,
      "à¦°à¦ªà¦¤à¦¨": 4080,
      "Ġà¦¦à¦¶à¦¬à¦Ľà¦°": 4081,
      "Ġà¦īà§İà¦¸à¦ĵ": 4082,
      "Ġà¦Ĩà¦§à¦ª": 4083,
      "Ġà¦ĵà¦ĩà¦¸à¦®à¦¯": 4084,
      "à¦ĩà¦Łà¦¬": 4085,
      "à¦ĩà¦Łà¦¹": 4086,
      "à¦¨à¦¸à¦ĸ": 4087,
      "Ġà§®à§Ńà§¦": 4088,
      "Ġà§©à§¬à§¯": 4089,
      "Ġà¦Ĩà¦¹à¦®à¦¦à¦īà¦²": 4090,
      "Ġà¦ħà¦ķà¦ªà¦Ł": 4091,
      "à¦°à¦Ĺà¦£": 4092,
      "Ġà¦ıà¦ķà¦¦à¦¶": 4093,
      "à§ĩ')": 4094,
      "à¦°à¦ªà¦°à¦ĩ": 4095,
      "Ġà¦¸à¦¹à¦ľà¦¤à¦°": 4096,
      "Ġà¦¨à¦¬à¦ľ": 4097,
      "Ġà§¬à§¨": 4098,
      "Ġà§¬à§©": 4099,
      "Ġà§¬à§¦à§¦à§¦": 4100,
      "Ġà§¬à§¦à§§": 4101,
      "Ġà¦īà§İà¦«": 4102,
      "Ġà¦īà§İà¦ªà¦°": 4103,
      "à¦Ĩà¦ĩà¦Ĩà¦°": 4104,
      "à¦Ĩà¦ĩà¦ıà¦²": 4105,
      "Ġà¦ıà¦Ńà¦°": 4106,
      "Ġà¦Ĩà¦¸à¦¨à¦Ĺ": 4107,
      "Ġà¦Ĩà¦¸à¦¨à¦ĵ": 4108,
      "Ġà¦¦à¦ĸà¦²à¦¬": 4109,
      "à¦ıà¦®à¦ıà¦«à¦ķ": 4110,
      "Ġà¦ĺà¦¨à¦ĺ": 4111,
      "Ġà¦ĺà¦¨à¦ĺà¦Ł": 4112,
      "Ġà¦ħà¦¶à¦°": 4113,
      "Ġà¦ľà¦¬à¦¡": 4114,
      "Ġà§¨à§¦à§¦à§¯": 4115,
      "à¦ľà¦¨à¦ķà¦ĩ": 4116,
      "à¦¿'-": 4117,
      "à¦¿';": 4118,
      "à§§à§¨": 4119,
      "à§§à§¬": 4120,
      "à§§à§§à§§": 4121,
      "à¦Ĺà¦£à¦«": 4122,
      "Ġà¦¬à¦¦à¦²à¦ĵ": 4123,
      "Ġà§Ńà§ª": 4124,
      "Ġà§Ńà§§": 4125,
      "Ġà§Ńà§®": 4126,
      "Ġà§Ńà§¯": 4127,
      "Ġà§Ńà§¦à§Ń": 4128,
      "Ġà§Ńà§¨à§«": 4129,
      "Ġà§Ńà§¯à§¦": 4130,
      "à¦īà¦²à¦¦": 4131,
      "Ġà¦¡à¦²à¦«": 4132,
      "Ġà§¦à§¬": 4133,
      "à¦¯à¦Łà¦¨à¦ķ": 4134,
      "Ġà§§à§¨à§¦": 4135,
      "Ġà§§à§¨à§ª": 4136,
      "Ġà§§à§¨à§¬": 4137,
      "Ġà¦Ĩà¦ĩà¦ĵà¦Ł": 4138,
      "Ġà¦Ĩà¦ĩà¦ıà¦®à¦ıà¦«à¦ķ": 4139,
      "Ġà§§à§¯à§®à§«": 4140,
      "Ġà¦ķà¦ªà¦Łà¦¤": 4141,
      "Ġà¦Ĩà¦ļà¦¡": 4142,
      "Ġà¦ıà¦®à¦ı": 4143,
      "à¦¯à¦¤à¦®à¦ĵ": 4144,
      "Ġà¦Ĩà¦Łà¦¶": 4145,
      "Ġà¦Ĩà¦Łà¦ľà¦¨": 4146,
      "Ġà¦§à¦¨à¦ŀ": 4147,
      "à¦°à¦®à¦£à¦¸à¦Ļ": 4148,
      "Ġà¦ħà¦®à¦°à¦¤": 4149,
      "Ġà¦ħà¦®à¦Ļ": 4150,
      "à¦¨à¦®à¦Ļ": 4151,
      "à¦ķà¦¥à¦ķ": 4152,
      "Ġà¦°à¦ĵà¦¨à¦ķ": 4153,
      "Ġà§§à§®à§ª": 4154,
      "Ġà§§à§®à§¨à§©": 4155,
      "Ġà§§à§®à§«à§«": 4156,
      "Ġà§§à§®à§©à§§": 4157,
      "Ġà§§à§®à§«à§Ń": 4158,
      "Ġà§§à§®à§«à§¬": 4159,
      "Ġà§§à§®à§§à§§": 4160,
      "Ġà§§à§®à§¯à§¯": 4161,
      "Ġà¦ıà¦¡à¦Ń": 4162,
      "à¦ľà¦¬à¦¢": 4163,
      "à¦°à¦ķà¦®à¦ĩ": 4164,
      "Ġà¦ļà¦®à¦ķà¦ª": 4165,
      "Ġà¦ļà¦Łà¦ªà¦Ł": 4166,
      "Ġà¦Ĭà¦¨à¦¤": 4167,
      "Ġà¦Ĭà¦Ĺà¦ķ": 4168,
      "à¦ķà¦¡à¦ĵ": 4169,
      "Ġà¦¨à¦ľà¦°à¦ķ": 4170,
      "à¦¬à¦ľà¦¨à¦¬": 4171,
      "à¦Łà¦¬à¦²à¦ĵ": 4172,
      "à¦ªà¦£à¦¨": 4173,
      "à¦ªà¦£à¦®": 4174,
      "à¦ªà¦£à¦¹": 4175,
      "Ġà¦ķà¦Łà¦ķà¦Ł": 4176,
      "Ġà¦ĭà¦£à¦ļ": 4177,
      "Ġà¦ıà¦ĩà¦ļà¦¡": 4178,
      "Ġà¦ıà¦ĩà¦ļà¦ıà¦®à¦¡": 4179,
      "Ġà§¯à§ª": 4180,
      "Ġà§¯à§¦à§®": 4181,
      "Ġà¦ħà¦¬à¦¦à¦®à¦¨": 4182,
      "Ġà¦¨à¦ķà¦²à¦®": 4183,
      "à¦ĩà¦Ńà¦¸": 4184,
      "à¦ĩà¦Ńà¦ĵ": 4185,
      "à¦¹à¦°à¦£à¦®": 4186,
      "Ġà¦ľà¦¨à¦Ĺà¦£à¦¦": 4187,
      "Ġà§§à§«à§ª": 4188,
      "Ġà§§à§«à§¬": 4189,
      "à¦®à¦£à¦ķ": 4190,
      "à¦ĩà¦ľà¦¡": 4191,
      "Ġà¦Īà¦¦": 4192,
      "Ġà¦Īà¦·à§İ": 4193,
      "à¦¬à¦Ľà¦°à¦ĩ": 4194,
      "Ġà¦¸à¦«à¦²à¦Ń": 4195,
      "à§¨à§¦à§¦à§®": 4196,
      "à§¨à§¦à§¦à§¨": 4197,
      "à¦ķà¦°à¦£à¦Ĺà¦¤": 4198,
      "à¦ķà¦°à¦£à¦¸à¦¹": 4199,
      "à¦¼';": 4200,
      "Ġà¦ıà¦ķà¦¶à¦ľà¦¨": 4201,
      "Ġà§§à§¯à§Ńà§¨": 4202,
      "Ġà§§à§¯à§Ńà§®": 4203,
      "Ġà¦Ĩà¦ĸà¦®": 4204,
      "Ġà¦ľà¦¨à¦¸à¦®à¦ķ": 4205,
      "Ġà¦Ĩà¦¹à¦¤à¦¦": 4206,
      "à¦ĸà¦°à¦ŀ": 4207,
      "Ġà§§à§©à§¦": 4208,
      "Ġà§§à§©à§¨à§ª": 4209,
      "à¦®à¦ĵà¦²": 4210,
      "Ġà¦¨à¦ķà¦Ĩà¦īà¦Ł": 4211,
      "Ġà¦ĩà¦īà¦ª": 4212,
      "Ġà§§à§ªà§¦": 4213,
      "Ġà§§à§ªà§¬": 4214,
      "Ġà§§à§ªà§ªà§¬": 4215,
      "Ġà§§à§¯à§¬à§¨": 4216,
      "Ġà§§à§¯à§¬à§©": 4217,
      "à§§à§¯à§¨à§«": 4218,
      "à§§à§¯à§§à§©": 4219,
      "Ġà¦Ķà§İà¦¸": 4220,
      "à¦°à¦°à¦«à¦ķ": 4221,
      "à¦ķà¦ĵà¦®": 4222,
      "à¦®à¦¶à¦¤à¦¬": 4223,
      "à¦¸à¦«à¦Ł": 4224,
      "à¦¸à¦«à¦°à¦®": 4225,
      "à¦ĩà¦īà¦¬": 4226,
      "à¦ĩà¦īà¦ª": 4227,
      "à¦ĩà¦īà¦ıà¦¨à¦ĵ": 4228,
      "à¦ıà¦¨à¦ıà¦¸à¦Ĩà¦ĩ": 4229,
      "à¦ıà¦¨à¦Ĩà¦ĩà¦Ĩà¦°": 4230,
      "à¦Łà¦¸à¦ħ": 4231,
      "Ġà§¨à§ªà§§": 4232,
      "Ġà§§à§¯à§ªà§ª": 4233,
      "Ġà§§à§¯à§ªà§¨": 4234,
      "Ġà§§à§¯à§ªà§¬": 4235,
      "à¦¿.)": 4236,
      "à¦¿.,": 4237,
      "Ġà¦®à¦£à¦ª": 4238,
      "Ġà¦Ĩà¦ļà¦°à¦£à¦ĩ": 4239,
      "Ġà¦Ĩà¦ļà¦°à¦£à¦¸à¦¹": 4240,
      "à¦¬à¦£à¦¸à¦¨": 4241,
      "Ġà¦ķà¦¦à¦®à¦¤à¦²": 4242,
      "Ġà¦ıà¦¶à¦¹à¦°": 4243,
      "Ġà¦®à¦¹à¦²à¦ĩ": 4244,
      "à¦²à¦¶à¦ķà¦°": 4245,
      "à¦¶à¦¦à¦Ń": 4246,
      "Ġà§§à§§à§§": 4247,
      "Ġà§§à§§à§ª": 4248,
      "Ġà§§à§§à§¬": 4249,
      "Ġà§¨à§«à§¨": 4250,
      "Ġà§¨à§«à§Ń": 4251,
      "à¦¶à¦¸à¦«à¦°": 4252,
      "Ġà§§à§¬à§¯": 4253,
      "Ġà§¨à§©à§¬": 4254,
      "à¦¦à¦¸à¦ĩ": 4255,
      "Ġà¦ıà¦°à¦ĩà¦®à¦§": 4256,
      "Ġà§§à§¯à§«à§§": 4257,
      "Ġà§§à§¯à§«à§¬": 4258,
      "Ġà§§à§¯à§«à§®": 4259,
      "Ġà§ªà§Ńà§¬": 4260,
      "à¦ļà¦°à¦£à¦ķ": 4261,
      "à¦īà¦ªà¦®": 4262,
      "à¦īà¦ªà¦°à¦¤à¦²": 4263,
      "à§¯à§©": 4264,
      "à§¯à§¬": 4265,
      "à§¯à§Ń": 4266,
      "Ġà§¯à§§": 4267,
      "Ġà§¯à§¬": 4268,
      "Ġà§¨à§Ńà§¨": 4269,
      "à¦ĩà¦ĵà¦Ń": 4270,
      "Ġà§¨à§¯à§ª": 4271,
      "Ġà§¨à§¬à§ª": 4272,
      "Ġà§¨à§¬à§©": 4273,
      "à§¨à§¦à§§à§®": 4274,
      "à¦¼)-": 4275,
      "à¦®à¦¹à¦°à¦°à¦®": 4276,
      "à¦²à¦¥à¦ĩ": 4277,
      "Ġà¦Ĩà¦īà¦Łà¦¸": 4278,
      "Ġà¦ľà¦Ĺà§İà¦¸": 4279,
      "à§ªà§«à§«": 4280,
      "à§ªà§«à§¦à§¦à§§": 4281,
      "Ġà§¬à§®à§¦": 4282,
      "Ġà§¬à§®à§¨": 4283,
      "Ġà§¬à§®à§§": 4284,
      "Ġà§¬à§®à§«": 4285,
      "Ġà¦Ĺà¦¤à¦¬à¦Ľà¦°à¦ĵ": 4286,
      "Ġà¦¤à¦°à¦«à¦¦": 4287,
      "à§§à§«à§©": 4288,
      "à¦¤à¦¸à¦ĩà¦ĵ": 4289,
      "Ġà¦ªà¦Łà¦ªà¦°": 4290,
      "Ġà¦ħà¦¬à¦¨à¦®à¦¨": 4291,
      "à¦§à¦¦à¦¶à¦ķ": 4292,
      "Ġà§©à§Ńà§¯": 4293,
      "à§§à§¯à§®à§©": 4294,
      "à§§à§¯à§®à§Ń": 4295,
      "à§§à§¯à§®à§®": 4296,
      "à¦Ĺà¦ªà§İ": 4297,
      "Ġà¦°à¦¹à¦®à¦¤à¦ª": 4298,
      "à¦¨à¦°à¦¤à¦¦": 4299,
      "à¦¡à¦ĵà¦Ń": 4300,
      "à¦§à¦¸à¦¹à¦¸": 4301,
      "Ġà§§à§Ńà§¯à§©": 4302,
      "à§¨à§Ńà§«": 4303,
      "à§«à§«à§®": 4304,
      "Ġà§ªà§«à§¨": 4305,
      "à§§à§¯à§ªà§¯": 4306,
      "à§¯à§¦à§¦à§§": 4307,
      "à¦¨à¦°à¦¸à¦¹": 4308,
      "Ġà¦ķà¦¸à¦°à¦¤": 4309,
      "Ġà¦īà¦·à¦¶": 4310,
      "à¦īà¦¶à¦¨à¦¸": 4311,
      "à¦ħà¦¸à¦Łà¦ķ": 4312,
      "à¦¨à¦¸à¦¹à¦ķ": 4313,
      "Ġà¦¬à¦¶à¦¬à¦°": 4314,
      "Ġà¦ħà¦¨à¦¶à¦¨à¦°à¦¤": 4315,
      "à§¬à§¬à§¦": 4316,
      "Ġà§ªà§¬à§©": 4317,
      "Ġà§«à§®à§¯": 4318,
      "à§§à§©à§¨": 4319,
      "à§§à§®à§¯à§¦": 4320,
      "à§§à§¯à§Ńà§¨": 4321,
      "à§§à§¯à§¯à§¬": 4322,
      "à§§à§¯à§¯à§¯": 4323,
      "à§§à§¯à§¯à§Ń": 4324,
      "Ġà§¯à§¨à§ª": 4325,
      "à¦ıà¦ĸà¦¨à¦ĵ": 4326,
      "à§®à§Ńà§®": 4327,
      "Ġà¦Ĭà¦¨à¦ļà¦²": 4328,
      "à¦Łà¦ľà¦¨à¦¦": 4329,
      "Ġà¦ĸà¦¨à¦¨à¦ķ": 4330,
      "à¦ıà¦¨à¦ĵà¦¸": 4331,
      "à¦Ĩà¦Ĩà¦Ĩà¦¨à¦Ń": 4332,
      "Ġà¦¶à¦°à§İà¦ļà¦¨": 4333,
      "Ġà¦ĵà¦ĩà¦¸à¦¬à¦ĩ": 4334,
      "......": 4335,
      "à§§à§ªà§¦à§¦à§§": 4336,
      "Ġà¦¸à§İà¦ªà¦¥à¦Ł": 4337,
      "Ġà¦ŀà¦¯à¦¬": 4338,
      "à¦¶à¦ªà¦°à¦®": 4339,
      "Ġà¦°à¦¨à¦²à¦¤": 4340,
      "Ġà¦ķà¦ļà¦ķà¦ļ": 4341,
      "à¦®à¦ıà¦ĩà¦ļà¦ıà¦¸à¦¸": 4342,
      "Ġà¦Ĩà¦ĩà¦ķà¦¨": 4343,
      "Ġà¦¨à¦ĵà¦¶": 4344,
      "Ġà¦ıà¦ıà¦«à¦ª": 4345,
      "Ġà¦ıà¦ıà¦ĩà¦ļà¦ı": 4346,
      "Ġà¦¦à¦ĸà¦²à¦ķ": 4347,
      "à¦ľà¦¬à¦ªà¦£": 4348,
      "Ġà¦¤à¦ĵà¦¬": 4349,
      "Ġà¦¤à§İà¦ªà¦°à¦¬à¦°": 4350,
      "Ġà¦¤à§İà¦ªà¦°à¦¤": 4351,
      "à¦¹à¦Ĩà¦ĩà¦¸": 4352,
      "à¦¹à¦Ĺà¦£à¦¨": 4353,
      "Ġà¦°à¦īà¦«à¦¸à¦¹": 4354,
      "Ġà¦Ńà¦¨à¦Ńà¦¨": 4355,
      "Ġà¦«à¦¬à¦¬à¦¢": 4356,
      "Ġà¦«à¦§à§İà¦¶": 4357,
      "à¦łà¦ķà¦²à¦Ļ": 4358,
      "Ġà¦Ĩà¦°à¦Ĩà¦°à¦Ĩà¦°": 4359,
      "à¦īà§İà¦ªà¦²": 4360,
      "Ġà¦¡à¦Łà¦ķà¦®": 4361,
      "Ġà¦Łà¦¨à¦Łà¦¨": 4362,
      "Ġà¦Łà¦Ĺà¦¬à¦Ĺ": 4363,
      "à¦Ĩà¦¹à¦®à¦¦": 4364,
      "à¦Ĩà¦°à¦ĩà¦ī": 4365,
      "à¦Ĩà¦²à¦¬à¦¦à¦°à¦¦": 4366,
      "à¦ĺà¦²à¦Ĺà¦¡": 4367,
      "à¦ıà¦¸à¦ıà¦¸à¦ıà¦«": 4368,
      "')": 4369,
      "'?<": 4370,
      ")âĢĶ": 4371,
      "©à§¬": 4372,
      "à§ĩ\"": 4373,
      "à§ĩ),": 4374,
      "à¦°à§İ": 4375,
      "à¦°à¦Ĩ": 4376,
      "à¦°à¦Ľà¦¨": 4377,
      "à¦°à¦ĺà¦¨": 4378,
      "à¦°à¦īà¦¤": 4379,
      "à¦°à¦ħà¦¸": 4380,
      "à§į;": 4381,
      "à¦¨à¦ĸ": 4382,
      "à¦¨à¦£": 4383,
      "à¦¨à¦ł": 4384,
      "à¦¨à¦°à¦ķ": 4385,
      "à¦¨à¦¤à¦°": 4386,
      "à¦¨à¦Ĩ": 4387,
      "à¦¨à¦°à¦ĵ": 4388,
      "à¦¨à¦¸à¦¨": 4389,
      "à¦¨à¦¬à¦°à¦£": 4390,
      "à¦¨à¦ıà¦ĩ": 4391,
      "à¦¨à¦ĸà¦¯": 4392,
      "à¦¯à¦§": 4393,
      "à¦¯à¦ī": 4394,
      "à¦¯à¦ªà¦°": 4395,
      "à¦¯à¦¨à¦¤": 4396,
      "à¦¯à¦ŀ": 4397,
      "à¦¯à¦ķà¦Ł": 4398,
      "à¦¯à¦Ĺà¦¤": 4399,
      "à¦¯à¦ªà¦ķ": 4400,
      "à¦¯à¦Ĺà¦łà¦¨": 4401,
      "à¦¯à¦ªà¦¥": 4402,
      "à¦¤à¦¤à¦°": 4403,
      "à¦¤à¦ķà¦²": 4404,
      "à¦¤à¦²à¦ķ": 4405,
      "à¦¤à¦ªà¦ķ": 4406,
      "à¦¤à¦¸à¦¨": 4407,
      "à¦¤à¦¹à¦¤": 4408,
      "à¦¤à¦®à¦¬": 4409,
      "à¦¤à¦¹à¦²": 4410,
      "à¦¤à¦ľà¦¨à¦ķ": 4411,
      "à¦¤à¦īà¦²": 4412,
      "à¦¤à¦ªà¦¥": 4413,
      "à¦¤à¦§à¦°": 4414,
      "à¦¤à¦·à¦Ł": 4415,
      "à¦¤à¦¯à¦¶": 4416,
      "à¦¤à¦ĺà¦¡": 4417,
      "à¦ķà¦¹": 4418,
      "à¦ķà¦¬à¦¨": 4419,
      "à¦ķà§İ": 4420,
      "à¦ķà¦¤à¦¨": 4421,
      "à¦ķà¦®à¦²": 4422,
      "à¦ķà¦¸à¦¬": 4423,
      "à¦ķà¦¦à¦²": 4424,
      "à¦ķà¦ļà¦²": 4425,
      "à¦ķà¦¨à¦¦": 4426,
      "à¦ķà¦¨à¦Ĺà¦°": 4427,
      "à¦ķà¦Ĺà¦£": 4428,
      "à¦ķà¦ļà¦°": 4429,
      "à¦ķà¦ªà¦ļ": 4430,
      "à¦ķà¦ªà¦°à¦¬à¦°": 4431,
      "à¦²à¦ĵà¦¯": 4432,
      "à¦²à¦ªà¦°": 4433,
      "à¦²à¦ķà¦°": 4434,
      "à¦²à¦®à¦¤": 4435,
      "à¦²à¦ķà¦Ł": 4436,
      "à¦²à¦°à¦ª": 4437,
      "à¦²à¦ķà¦²à¦ķ": 4438,
      "à¦¬à¦ªà¦¤": 4439,
      "à¦¬à§İà¦¸": 4440,
      "à¦¬à¦¸à¦®": 4441,
      "à¦¬à§İà¦ķ": 4442,
      "à¦¬à¦¹à¦¸": 4443,
      "à¦¬à¦¶à¦¬": 4444,
      "à¦¬à¦ľà¦¨à¦ķ": 4445,
      "à¦¬à¦ļà¦°": 4446,
      "à¦¬à¦ĺà¦°": 4447,
      "à¦¬à¦Ĺà¦¤à¦Ń": 4448,
      "à¦¬à¦ħà¦²": 4449,
      "Ġà¦ķà¦¶": 4450,
      "Ġà¦ķà¦ľ": 4451,
      "Ġà¦ķà¦ĵà¦¯": 4452,
      "Ġà¦ķà¦²à¦¤": 4453,
      "Ġà¦ķà¦ĩà¦Ľ": 4454,
      "Ġà¦ķà¦²à¦¤à¦²": 4455,
      "à§ģâĢĶ": 4456,
      "à¦®à¦¬à¦°": 4457,
      "à¦®à¦¤à¦°": 4458,
      "à¦®à¦¤à¦¨": 4459,
      "à¦®à¦ļà¦¨": 4460,
      "à¦®à¦ļà¦ķ": 4461,
      "à¦®à¦¸à¦¦": 4462,
      "à¦®à¦§à¦¨": 4463,
      "à¦®à¦Ńà¦¯": 4464,
      "à¦®à¦ĺà¦£": 4465,
      "à¦®à¦«à¦²à¦ķ": 4466,
      "Ġà¦¬à¦¤": 4467,
      "Ġà¦¬à¦Ľ": 4468,
      "Ġà¦¬à¦Ŀ": 4469,
      "Ġà¦¬à¦°à¦¯": 4470,
      "Ġà¦¬à¦ķà¦¬": 4471,
      "Ġà¦¬à¦Ĺà¦²": 4472,
      "Ġà¦¬à¦īà¦ķ": 4473,
      "Ġà¦¬à¦£à¦°": 4474,
      "Ġà¦¬à¦ļà¦¸": 4475,
      "Ġà¦¸à¦¸": 4476,
      "Ġà¦¸à¦Ľ": 4477,
      "Ġà¦¸à¦¶": 4478,
      "Ġà¦¸à¦ĵà¦¯": 4479,
      "Ġà¦¸à¦¦à¦ķ": 4480,
      "Ġà¦¸à¦ªà¦ķ": 4481,
      "Ġà¦¸à¦Ĺà¦°": 4482,
      "Ġà¦¸à¦Łà¦ķ": 4483,
      "Ġà¦¸à¦ĵà¦¦": 4484,
      "Ġà¦¸à¦ĩà¦Ľ": 4485,
      "Ġà¦¸à¦²à¦ľ": 4486,
      "Ġà¦¸à¦°à¦¬à¦¤": 4487,
      "à¦¦à¦ĸ": 4488,
      "à¦¦à¦ļ": 4489,
      "à¦¦à¦¹": 4490,
      "à¦¦à¦°à¦¤": 4491,
      "à¦¦à¦°à¦¬": 4492,
      "à¦¦à¦°à¦®": 4493,
      "à¦¦à¦¬à¦²": 4494,
      "à¦¦à¦ļà¦¯": 4495,
      "à¦¦à¦¶à¦ķ": 4496,
      "à¦¦à¦°à¦ĵ": 4497,
      "à¦¦à¦¶à¦¬": 4498,
      "à¦¦à¦¶à¦Ł": 4499,
      "à¦¦à¦ľà¦¨à¦ķ": 4500,
      "à¦¦à¦ĺà¦¨": 4501,
      "à¦¦à¦¹à¦¨": 4502,
      "à¦¦à¦ªà¦°à¦¬à¦°": 4503,
      "à¦¦à¦ļà¦¶": 4504,
      "à¦¦à¦°à¦¤à¦®": 4505,
      "Ġà¦ªà¦¸à¦°": 4506,
      "à¦¸à¦ĸ": 4507,
      "à¦¸à¦ľà¦¨": 4508,
      "à¦¸à¦ĸà¦¨": 4509,
      "à¦¸à¦ķà¦¤": 4510,
      "Ġà¦Ĩà¦ķà¦²": 4511,
      "Ġà¦Ĩà¦ļà¦ķ": 4512,
      "Ġà¦Ĩà¦ĩà¦¬": 4513,
      "Ġà¦Ĩà¦īà¦¡": 4514,
      "Ġà¦¨à¦°à¦ª": 4515,
      "Ġà¦¨à¦®à¦¸": 4516,
      "Ġà¦¨à¦¨à¦ĩ": 4517,
      "Ġà¦¨à¦Ĺà¦¦": 4518,
      "Ġà¦¨à¦°à¦ķà¦°": 4519,
      "Ġà¦¨à¦ĸà¦Ĺ": 4520,
      "Ġà¦¨à¦ĸà¦¦à¦°": 4521,
      "à¦Łà¦§": 4522,
      "à¦Łà¦¥": 4523,
      "à¦Łà¦ªà¦¤": 4524,
      "à¦Łà¦²à¦ķ": 4525,
      "à¦Łà¦®à¦ķ": 4526,
      "à¦Łà¦°à¦ĩ": 4527,
      "à¦Łà¦²à¦Ĺ": 4528,
      "à¦Łà¦°à¦ĵ": 4529,
      "à¦Łà¦¤à¦®": 4530,
      "à¦Łà¦«à¦²": 4531,
      "à¦Łà¦°à¦ªà¦°": 4532,
      "à¦Łà¦ļà¦¤": 4533,
      "à¦Ľà¦£": 4534,
      "à¦Ľà¦²à¦¤": 4535,
      "à¦ĩà¦§": 4536,
      "à¦ĩà¦¥": 4537,
      "à¦ĩà¦Ļ": 4538,
      "à¦ĩà¦ĸà¦²": 4539,
      "à¦ĩà¦¸à¦¨": 4540,
      "à¦ĩà¦ĩà¦°": 4541,
      "à¦ĩà¦¸à¦¹": 4542,
      "à¦ĩà¦īà¦ķ": 4543,
      "à¦ĩà¦¤à¦²": 4544,
      "à¦ĩà¦ªà¦¡": 4545,
      "à¦ĩà¦ľà¦²": 4546,
      "à¦ĩà¦ªà¦¯": 4547,
      "à¦ĩà¦ļà¦°à¦£": 4548,
      "Ġà¦ıà¦ªà¦°": 4549,
      "Ġà¦ıà¦¤à¦°": 4550,
      "Ġà¦ıà¦ı": 4551,
      "Ġà¦ıà¦®à¦¤": 4552,
      "Ġà¦ıà¦ĸà¦²": 4553,
      "Ġà¦ıà¦ıà¦¸": 4554,
      "Ġà¦ıà¦ıà¦®": 4555,
      "Ġà¦¦à¦°à¦¦à¦°": 4556,
      "Ġà¦®à¦ļ": 4557,
      "Ġà¦®à¦ī": 4558,
      "Ġà¦®à¦¦à¦ķ": 4559,
      "Ġà¦®à¦¹à¦®": 4560,
      "Ġà¦®à¦Łà¦ķ": 4561,
      "Ġà¦®à¦¶à¦Ĺ": 4562,
      "Ġà¦®à¦ĩà¦Ĺ": 4563,
      "à¦ªà¦¹": 4564,
      "à¦ªà¦«": 4565,
      "à¦ªà¦°à¦¤": 4566,
      "à¦ªà¦ĩà¦ķ": 4567,
      "à¦ªà§İà¦ķ": 4568,
      "à¦ªà¦¸à¦¦": 4569,
      "à¦ªà¦²à¦Ł": 4570,
      "à¦ªà¦Łà¦°": 4571,
      "à¦ªà¦ļà¦°": 4572,
      "à¦ªà¦²à¦¸": 4573,
      "à¦ªà¦ĸà¦°": 4574,
      "Ġà¦¹à¦°à¦£": 4575,
      "Ġà¦¹à¦ķà¦°": 4576,
      "Ġà¦¹à¦ĩà¦¯": 4577,
      "Ġà¦¹à¦ķà¦¦": 4578,
      "à¦¶à¦§": 4579,
      "à¦¶à¦£": 4580,
      "à¦¶à¦°à¦¤": 4581,
      "à¦¶à¦¤à¦¬": 4582,
      "à¦¶à¦¸à¦¨": 4583,
      "à¦¶à¦¢": 4584,
      "à¦¶à¦ľà¦ķ": 4585,
      "à¦¶à¦ľà¦¨à¦ĩ": 4586,
      "à¦¶à¦®à¦¨à¦ķ": 4587,
      "à§Ģ',": 4588,
      "à¦ľà¦¡": 4589,
      "à¦ľà¦®à¦¤": 4590,
      "à¦ľà¦ķà¦Ł": 4591,
      "à¦ľà¦¤à¦¬": 4592,
      "à¦ľà¦°à¦§": 4593,
      "à¦ľà¦Ĺà¦£": 4594,
      "à¦ľà¦°à¦¹à¦¤": 4595,
      "Ġà¦¤à¦°à¦¤": 4596,
      "Ġà¦¤à¦°à¦®": 4597,
      "Ġà¦¤à¦Ľà¦°": 4598,
      "Ġà¦¤à§İà¦¸": 4599,
      "Ġà¦¤à§İà¦ªà¦°": 4600,
      "Ġà¦ķà¦°à¦¨": 4601,
      "Ġà¦ķà¦°à¦®à¦°": 4602,
      "à¦Ĺà¦§": 4603,
      "à¦Ĺà¦°à¦ķ": 4604,
      "à¦Ĺà§İ": 4605,
      "à¦Ĺà¦ªà¦¤": 4606,
      "à¦Ĺà¦¤à¦ķ": 4607,
      "à¦Ĺà¦ªà¦¦": 4608,
      "à¦Ĺà¦ĺà¦¨": 4609,
      "à¦·à¦ĸ": 4610,
      "à¦·à¦¤à¦¨": 4611,
      "à¦·à¦¦à¦²": 4612,
      "à¦·à¦®à¦¬": 4613,
      "à¦·à¦§à¦¬": 4614,
      "à¦·à¦ľà¦¨à¦ķ": 4615,
      "à¦·à¦¨à¦ĩ": 4616,
      "à¦·à¦§à¦°": 4617,
      "à¦ĸà¦ľ": 4618,
      "à¦ĸà¦®à¦¨": 4619,
      "à¦ĸà¦¬à¦¨": 4620,
      "à¦ĸà¦Ńà¦°": 4621,
      "à¦¡à¦¶": 4622,
      "à¦¡à¦ªà¦°": 4623,
      "à¦¡à¦¬à¦°": 4624,
      "à¦¡à¦¬à¦²": 4625,
      "à¦¡à¦¬à¦ķ": 4626,
      "à¦¡à¦ķà¦ķ": 4627,
      "à¦¡à¦¨à¦ĵ": 4628,
      "à¦¡à¦ķà¦ĵ": 4629,
      "à¦¡à¦ķà¦ª": 4630,
      "à¦¡à¦ªà¦ĵ": 4631,
      "Ġà¦ħà¦ķà¦°": 4632,
      "Ġà¦ħà¦ķà¦²": 4633,
      "Ġà¦ħà¦ķà¦¬": 4634,
      "Ġà¦ħà¦¹à¦¨": 4635,
      "à¦ļà¦Ĺ": 4636,
      "à¦ļà¦°à¦ķ": 4637,
      "à¦ļà¦²à¦¨": 4638,
      "à¦ļà¦¶à¦ķ": 4639,
      "à¦ļà¦¸à¦®": 4640,
      "à¦ļà¦²à¦¬": 4641,
      "à¦ļà¦¢": 4642,
      "à¦ļà¦¶à¦¤": 4643,
      "à¦ļà¦ĵà¦¡": 4644,
      "à¦ļà¦®à¦¤à¦²": 4645,
      "à¦¼à¦¾...": 4646,
      "à¦§à¦¹": 4647,
      "à¦§à¦ľà¦¨": 4648,
      "à¦§à¦ªà¦°": 4649,
      "à¦§à¦¬à¦°": 4650,
      "à¦§à¦®à¦ķ": 4651,
      "à¦§à¦¶à¦ķ": 4652,
      "à¦§à¦¸à¦®": 4653,
      "à¦§à¦¸à¦ª": 4654,
      "à¦§à¦ļà¦°": 4655,
      "à¦§à¦°à¦°": 4656,
      "à¦§à¦ľà¦Ĺà¦¤": 4657,
      "Ġà¦ľà¦ķ": 4658,
      "Ġà¦ľà¦ł": 4659,
      "Ġà¦ľà¦²à¦ķ": 4660,
      "Ġà¦ľà¦²à¦¨": 4661,
      "Ġà¦ľà¦Ĺà¦®": 4662,
      "Ġà¦ľà¦Ĺà¦¦": 4663,
      "à¦¹à¦ĩ": 4664,
      "à¦¹à¦¬à¦¨": 4665,
      "à¦¹à¦§à¦¨": 4666,
      "à¦¹à¦¬à¦§": 4667,
      "à¦¹à¦ľà¦¨à¦ķ": 4668,
      "à¦¹à¦°à¦ķà¦²": 4669,
      "à¦¹à¦¨à¦ĩ": 4670,
      "à¦¹à¦ªà¦¦à¦ķ": 4671,
      "à¦¥à¦£": 4672,
      "à¦¥à¦°à¦ķ": 4673,
      "à¦¥à¦ķà¦¤": 4674,
      "à¦¥à¦¶à¦ķ": 4675,
      "à¦¥à¦ķà¦ĩ": 4676,
      "à¦ĵà¦ĩ": 4677,
      "à¦ĵà¦«": 4678,
      "à¦ĵà¦Ĩ": 4679,
      "à¦ĵà¦¸à¦®": 4680,
      "à¦ĵà¦²à¦Ł": 4681,
      "à¦ĵà¦²à¦ľ": 4682,
      "Ġà¦¶à¦°à¦¬": 4683,
      "Ġà¦¶à¦®à¦¶": 4684,
      "Ġà¦ļà¦£": 4685,
      "Ġà¦ļà¦°à¦¦": 4686,
      "Ġà¦ļà¦¨à¦®à¦¨": 4687,
      "Ġà¦ļà¦ªà¦ļ": 4688,
      "à¦£à¦²": 4689,
      "à¦£à¦¤à¦°": 4690,
      "à¦£à¦®à¦¯": 4691,
      "à¦£à¦¦à¦²": 4692,
      "à¦£à¦ļà¦¤": 4693,
      "à¦£à¦Ńà¦°": 4694,
      "à¦£à¦¬à¦Ļ": 4695,
      "Ġà¦Ĺà¦Ļ": 4696,
      "Ġà¦Ĺà¦²à¦ķ": 4697,
      "Ġà¦Ĺà¦°à¦²": 4698,
      "Ġà¦Ĺà¦²à¦Ĺ": 4699,
      "Ġà¦Ĺà¦Ĺà¦£": 4700,
      "Ġà¦°à¦¸à¦¬": 4701,
      "Ġà¦°à¦¸à¦¦": 4702,
      "Ġà¦°à¦®à¦£": 4703,
      "Ġà¦°à¦£à¦ķ": 4704,
      "à¦Ńà¦Ľ": 4705,
      "à¦Ńà¦ĩ": 4706,
      "à¦Ńà¦£": 4707,
      "à¦Ńà¦¬à¦¨": 4708,
      "à¦Ńà¦¸à¦®": 4709,
      "à¦Ńà¦²à¦¬": 4710,
      "à¦Ńà¦¬à¦ķ": 4711,
      "Ġà¦Ńà¦ľà¦¨": 4712,
      "Ġà¦Ńà¦°à¦¬": 4713,
      "Ġà¦Ńà¦°à¦¦": 4714,
      "Ġà¦Ńà§İà¦¸": 4715,
      "Ġà¦Ńà¦°à¦ª": 4716,
      "Ġà¦Ńà¦°à¦¸à¦¨": 4717,
      "Ġà¦Ńà¦ľà¦ķà¦Ł": 4718,
      "Ġà¦ıà¦ķà¦²": 4719,
      "Ġà¦ıà¦ķà¦¡": 4720,
      "Ġà¦ıà¦ķà¦§": 4721,
      "Ġà¦ıà¦ķà¦°à¦¤": 4722,
      "Ġà¦ıà¦ķà¦®à¦¨": 4723,
      "Ġà¦ıà¦ķà¦¦à¦¨": 4724,
      "Ġà¦ıà¦ķà¦ĩà¦ķ": 4725,
      "Ġà¦ıà¦ķà¦ıà¦ķ": 4726,
      "Ġà¦ıà¦ķà¦¡à¦ľà¦¨": 4727,
      "Ġà¦ĵà¦ªà¦¡": 4728,
      "Ġà¦ĵà¦ĵà¦ĵ": 4729,
      "Ġà¦¥à¦ª": 4730,
      "Ġà¦¥à¦°à¦¹à¦°": 4731,
      "Ġà¦¥à¦ªà¦¥à¦ª": 4732,
      "Ġà¦īà¦Ľ": 4733,
      "Ġà¦īà¦«": 4734,
      "Ġà¦īà¦·à¦°": 4735,
      "Ġà¦īà¦ĵà¦°": 4736,
      "Ġà¦²à¦Ĺ": 4737,
      "Ġà¦²à¦ĺ": 4738,
      "Ġà¦²à¦¹à¦®": 4739,
      "à¦ģ'": 4740,
      "à¦«à¦¯": 4741,
      "à¦«à¦¹": 4742,
      "à¦«à¦°à¦ĩ": 4743,
      "à¦«à¦°à¦ľ": 4744,
      "à¦«à¦ľà¦²": 4745,
      "Ġà¦ªà¦°à¦ĸ": 4746,
      "Ġà¦Ľà¦®": 4747,
      "Ġà¦ĸà¦ĩ": 4748,
      "Ġà¦ĸà¦ª": 4749,
      "Ġà¦ĸà¦°à¦¬": 4750,
      "Ġà¦ĸà¦ĩà¦¯": 4751,
      "Ġà¦«à¦ľ": 4752,
      "Ġà¦«à¦£": 4753,
      "Ġà¦«à¦²à¦ķ": 4754,
      "Ġà¦«à¦°à¦¸": 4755,
      "à¦łà¦Ľ": 4756,
      "à¦łà¦ĩ": 4757,
      "à¦łà¦ĵ": 4758,
      "à¦łà¦ķà¦Ł": 4759,
      "à¦łà¦¤à¦®": 4760,
      "à¦łà¦¤à¦²": 4761,
      "Ġà¦¸à¦®à¦¶à¦ķ": 4762,
      "Ġà¦¸à¦®à¦ķà¦ķ": 4763,
      "à¦ľà¦¨à¦¬": 4764,
      "à¦ľà¦¨à¦°à¦¤": 4765,
      "à¦ľà¦¨à¦Ĺà¦£": 4766,
      "à¦°à¦ķà¦¸": 4767,
      "à¦°à¦ķà¦ĩ": 4768,
      "à¦°à¦ķà¦¥": 4769,
      "à¦°à¦ķà¦ł": 4770,
      "Ġà¦ıà¦ĩà¦¦": 4771,
      "Ġà¦ıà¦ĩà¦ľà¦¨": 4772,
      "Ġà¦ıà¦ĩà¦¦à¦²": 4773,
      "Ġà¦ıà¦ĩà¦ľà¦Ĺà¦¤": 4774,
      "Ġà¦ħà¦¨à¦Ń": 4775,
      "à¦°à¦¤à¦¯": 4776,
      "à¦°à¦¤à¦¸": 4777,
      "à¦°à¦¤à¦Ł": 4778,
      "à¦°à¦¤à¦°à¦£": 4779,
      "Ġà¦ĩà¦¬à¦¨": 4780,
      "Ġà¦ĩà¦¦à¦ķ": 4781,
      "Ġà¦ĩà¦Ĺà¦²": 4782,
      "Ġà¦ĩà¦«à¦°": 4783,
      "Ġà¦ĩà¦Łà¦Ĺ": 4784,
      "Ġà¦ĩà¦¹à¦ľ": 4785,
      "Ġà¦ĩà§İà¦¨": 4786,
      "Ġà¦Ĩà¦°à¦¬à¦°": 4787,
      "Ġà¦Ĩà¦°à¦ıà¦¸": 4788,
      "à¦¼à¦¿à¦ģ": 4789,
      "à¦¼à¦¿âĢĶ": 4790,
      "à¦¼à¦¿!<": 4791,
      "à¦Ļà¦¬": 4792,
      "à¦Ļà¦¦": 4793,
      "à¦Ļà¦Ĺ": 4794,
      "à¦Ļà¦²à¦Ł": 4795,
      "à¦ĸà¦¨à¦¯à¦ľ": 4796,
      "Ġà¦ľà¦¨à¦°": 4797,
      "Ġà¦ľà¦¨à¦ĩ": 4798,
      "Ġà¦ľà¦¨à¦ľ": 4799,
      "Ġà¦ľà¦¨à¦®à¦¨": 4800,
      "Ġà¦ľà¦¨à¦Ĺà¦¨": 4801,
      "Ġà¦ľà¦¨à¦ķà¦ķ": 4802,
      "Ġà¦ĺà¦·": 4803,
      "Ġà¦ĺà¦°à¦ķà¦¨": 4804,
      "à¦®à¦¨à¦ĵ": 4805,
      "à¦īà¦ĵ": 4806,
      "à¦īà¦«": 4807,
      "à¦īà¦ªà¦ķ": 4808,
      "à¦īà¦ıà¦®": 4809,
      "à¦īà¦īà¦īà¦®": 4810,
      "à¦¾à¦Ĥ,": 4811,
      "à¦ªà¦°à¦¨": 4812,
      "à¦ªà¦°à¦®": 4813,
      "à¦ªà¦°à¦¦": 4814,
      "Ġà¦Ĩà¦²à¦¨": 4815,
      "Ġà¦Ĩà¦²à¦¬à¦¦à¦°": 4816,
      "Ġà¦®à¦¨à¦ķ": 4817,
      "Ġà¦®à¦¨à¦®": 4818,
      "à¦¬à¦°à¦¨": 4819,
      "à¦¬à¦°à¦¸": 4820,
      "à¦¬à¦°à¦ĸ": 4821,
      "à¦¬à¦°à¦ĵ": 4822,
      "à¦¬à¦°à¦¬à¦°": 4823,
      "Ġà¦Łà¦°": 4824,
      "Ġà¦Łà¦®": 4825,
      "Ġà¦Łà¦ª": 4826,
      "Ġà¦Łà¦ªà¦ķ": 4827,
      "Ġà¦Łà¦ĩà¦Ł": 4828,
      "à¦¤à¦°à¦¬à¦Ļ": 4829,
      "Ġà¦Ĩà¦¸à¦¨à¦Ł": 4830,
      "à¦°à¦£à¦°": 4831,
      "à¦°à¦£à¦¸": 4832,
      "à¦°à¦£à¦Ń": 4833,
      "Ġà¦¹à¦²à¦¸": 4834,
      "Ġà¦¹à¦²à¦ĵà¦¯": 4835,
      "à¦¬à¦¨à¦ľ": 4836,
      "à¦¬à¦¨à¦§": 4837,
      "à¦¬à¦¨à¦¹": 4838,
      "à¦¬à¦¨à¦Ń": 4839,
      "à¦¬à¦¨à¦¦à¦¶": 4840,
      "à¦ªà¦¨à¦ķ": 4841,
      "à¦ªà¦¨à¦ĩ": 4842,
      "à¦ªà¦¨à¦¤à¦®": 4843,
      "à¦¨à¦¤à¦¬": 4844,
      "à¦¨à¦¤à¦®à¦¸": 4845,
      "Ġà¦ıà¦°à¦°": 4846,
      "Ġà¦ıà¦°à¦¥": 4847,
      "Ġà¦ıà¦°à¦ľà¦¨": 4848,
      "à§İà¦Ł": 4849,
      "Ġà¦ħà¦¬à¦¦à¦®": 4850,
      "à¦ŀà¦Ł": 4851,
      "à¦ıà¦¦": 4852,
      "à¦ıà¦ª": 4853,
      "à¦ıà¦°à¦®": 4854,
      "à¦ıà¦²à¦¬": 4855,
      "à¦ıà¦ķà¦ĩ": 4856,
      "à¦ıà¦ķà¦ľà¦¨à¦ķ": 4857,
      "à¦ıà¦®à¦¨à¦Ł": 4858,
      "à¦ıà¦ıà¦¸à¦Ĩà¦ĩ": 4859,
      "à¦Ŀà¦¦": 4860,
      "à¦Ŀà¦Ĺ": 4861,
      "à¦Ŀà¦¬à¦¯": 4862,
      "à¦ķà¦°à¦¨": 4863,
      "à¦ķà¦°à¦ĩ": 4864,
      "à¦°à¦¬à¦¸": 4865,
      "à¦°à¦¬à¦ļ": 4866,
      "à¦°à¦¬à¦§": 4867,
      "à¦°à¦¬à¦ŀ": 4868,
      "Ġà¦®à¦¤à¦¨": 4869,
      "Ġà¦ļà¦²à¦ĵ": 4870,
      "à¦°à¦®à¦°": 4871,
      "à¦°à¦®à¦¤": 4872,
      "à¦°à¦®à¦ķ": 4873,
      "à¦°à¦®à¦¸": 4874,
      "à¦°à¦®à¦Ł": 4875,
      "à¦°à¦®à¦ĩ": 4876,
      "à¦°à¦®à¦¥": 4877,
      "à¦°à¦®à¦¶à¦ķ": 4878,
      "à¦°à¦®à¦ķà¦£": 4879,
      "Ġà¦¹à¦¤à¦¶": 4880,
      "Ġà¦Ĩà¦¬à¦¡": 4881,
      "à¦·à¦£à¦¶": 4882,
      "à¦·à¦£à¦¸à¦Ļ": 4883,
      "Ġà¦īà¦ªà¦¶": 4884,
      "Ġà¦īà¦ªà¦ķà¦°à¦¨": 4885,
      "à¦¶à¦¨à¦®": 4886,
      "à¦¶à¦¨à¦ĩ": 4887,
      "à¦¶à¦¨à¦ª": 4888,
      "à¦¶à¦¨à¦Ĺ": 4889,
      "à¦¶à¦¨à¦ĵ": 4890,
      "Ġà¦¢à¦²à¦¤": 4891,
      "à¦ªà¦¤à¦®": 4892,
      "à¦¯à¦¬à¦ķ": 4893,
      "à¦¯à¦¬à¦Ł": 4894,
      "à¦¯à¦¬à¦ļ": 4895,
      "à¦¯à¦¬à¦ĩà¦¯": 4896,
      "à¦¯à¦¬à¦ļà¦¨à¦¯à¦ľ": 4897,
      "à¦¤à¦¨à¦¯à¦ľ": 4898,
      "à¦¦à¦ķà¦¨": 4899,
      "à¦¦à¦ķà¦¤": 4900,
      "à¦¦à¦ķà¦¬": 4901,
      "à¦ļà¦¨à¦¬": 4902,
      "à¦ļà¦¨à¦ª": 4903,
      "à¦ļà¦¨à¦¶": 4904,
      "à¦ļà¦¨à¦ªà¦°": 4905,
      "à¦ļà¦¨à¦ªà¦¦": 4906,
      "à¦®à¦¤à¦¤": 4907,
      "à¦ķà¦²à¦ľ": 4908,
      "à¦ķà¦²à¦Ĺ": 4909,
      "à¦ķà¦²à¦¶à¦ķà¦°": 4910,
      "à¦ķà¦Łà¦¦à¦°": 4911,
      "à¦Ĩà¦¤": 4912,
      "à¦Ĩà¦°à¦¬": 4913,
      "à¦Ĩà¦®à¦²": 4914,
      "à¦Ĩà¦ĩà¦²": 4915,
      "à¦Ĩà¦°à¦ª": 4916,
      "à¦Ĩà¦¸à¦°": 4917,
      "à¦Ĩà¦¸à¦ķ": 4918,
      "à¦Ĩà¦ľà¦°": 4919,
      "à¦Ĩà¦¬à¦¦": 4920,
      "à¦Ĩà¦¬à¦¡": 4921,
      "à¦Ĩà¦²à¦«": 4922,
      "à¦Ĩà¦ľà¦¹": 4923,
      "à¦Ĩà¦§à¦Ł": 4924,
      "à¦Ĩà¦¤à¦Ļ": 4925,
      "à¦ĺà¦¬": 4926,
      "à¦ĺà§İ": 4927,
      "à¦ĺà¦Łà¦ķ": 4928,
      "à¦ĺà¦°à¦Ł": 4929,
      "à¦¬à¦²à¦¦": 4930,
      "à¦¬à¦²à¦ļ": 4931,
      "à¦¬à¦²à¦¤à¦®": 4932,
      "à¦²à¦ķà¦¦": 4933,
      "à¦²à¦ķà¦ĵ": 4934,
      "à¦²à¦ķà¦£": 4935,
      "à¦²à¦ķà¦¸à¦®": 4936,
      "Ġà¦ħà¦Ńà¦¬": 4937,
      "à¦®à¦²à¦ĩ": 4938,
      "à¦®à¦²à¦Ĺ": 4939,
      "à¦¹à¦®à¦¯": 4940,
      "Ġà¦Ĩà¦²à¦ķà¦¨à¦¤": 4941,
      "Ġà¦Ĩà¦¨à¦ķ": 4942,
      "Ġà¦Ĩà¦¨à¦Ľ": 4943,
      "Ġà¦ħà¦¸à¦°": 4944,
      "Ġà¦ħà¦¸à¦¦": 4945,
      "Ġà¦ħà¦¸à¦®à¦°": 4946,
      "Ġà¦ħà¦¸à¦®à¦¯": 4947,
      "à¦°à¦¸à¦¸": 4948,
      "à¦°à¦¸à¦°à¦¤": 4949,
      "à¦ĩà¦¨à¦®": 4950,
      "à¦ĩà¦¨à¦ª": 4951,
      "à¦ĩà¦¨à¦ľ": 4952,
      "Ġà¦¦à¦²à¦¬": 4953,
      "Ġà¦¦à¦²à¦ª": 4954,
      "Ġà¦¦à¦²à¦Ń": 4955,
      "Ġà¦¦à¦²à¦ªà¦°": 4956,
      "Ġà¦¦à¦²à¦®à¦¤à¦¨": 4957,
      "Ġà¦Ĩà¦ľà¦Ĺ": 4958,
      "Ġà¦Ĩà¦ľà¦®à¦ĩ": 4959,
      "à¦¿à¦Ĥ-": 4960,
      "Ġà¦¸à¦°à¦·": 4961,
      "Ġà¦¸à¦°à¦ĵà¦¯": 4962,
      "Ġà¦¸à¦°à¦²à¦°": 4963,
      "à¦²à¦¨à¦ķà¦¶": 4964,
      "à¦Ľà¦°à¦ª": 4965,
      "Ġà¦Ŀà¦°à¦£": 4966,
      "à¦ķà¦¤à¦¤": 4967,
      "Ġà¦īà¦¦à¦°": 4968,
      "Ġà¦ĺà¦Łà¦ķà¦°": 4969,
      "à¦¯à¦ķà¦®": 4970,
      "Ġà¦ħà¦ªà¦ķ": 4971,
      "Ġà¦ħà¦ªà¦·": 4972,
      "Ġà¦ħà¦ªà¦¹": 4973,
      "Ġà¦ħà¦ªà¦°à¦ķ": 4974,
      "Ġà¦ħà¦ªà¦²à¦ķ": 4975,
      "Ġà¦ħà¦ªà¦¶à¦ķ": 4976,
      "à¦¤à¦¬à¦ľ": 4977,
      "à¦¤à¦¬à¦¸à¦®": 4978,
      "à¦¤à¦¬à¦Ľà¦°à¦ª": 4979,
      "à¦°à¦¹à¦ĩ": 4980,
      "à¦°à¦¹à¦¶": 4981,
      "à¦°à¦¹à¦°à¦£": 4982,
      "à¦°à¦¥à¦ķ": 4983,
      "Ġà¦¬à¦ĩà¦°": 4984,
      "Ġà¦¬à¦ĩà¦¤": 4985,
      "Ġà¦¬à¦ĩà¦¦": 4986,
      "Ġà¦¬à¦ĩà¦¸": 4987,
      "Ġà¦¬à¦ĩà¦ĩ": 4988,
      "Ġà¦¬à¦ĩà¦¥": 4989,
      "Ġà¦¬à¦ĩà¦ªà¦¤": 4990,
      "Ġà¦ķà¦®à¦¦": 4991,
      "à¦¦à¦¨à¦°": 4992,
      "à¦¦à¦¨à¦®à¦¯": 4993,
      "à¦¦à¦¨à¦¸à¦¹": 4994,
      "à¦¸à¦¬à¦ķ": 4995,
      "à¦¸à¦¬à¦¦": 4996,
      "à¦¸à¦¬à¦ĩ": 4997,
      "à¦¤à¦ķà¦ľ": 4998,
      "à¦²à¦¤à¦ĵ": 4999,
      "Ġà¦¬à¦°à¦¨": 5000,
      "Ġà¦¬à¦Ľà¦°à¦ĸ": 5001,
      "Ġà¦¬à¦¨à¦¬": 5002,
      "Ġà¦¬à¦¨à¦¸": 5003,
      "à¦¬à¦¬à¦ŀ": 5004,
      "à¦Ĺà¦¤à¦¦": 5005,
      "à¦Ĺà¦¤à¦ĵ": 5006,
      "Ġà¦ıà¦¤à¦ľà¦¨": 5007,
      "à¦ĩà¦²à¦¸": 5008,
      "à¦ĩà¦²à¦ªà¦°": 5009,
      "à¦ĩà¦²à¦«à¦²à¦ķ": 5010,
      "à§ªà§Ń": 5011,
      "Ġà¦¸à¦¹à¦¬": 5012,
      "Ġà¦¸à¦¹à¦ļà¦°": 5013,
      "à¦®à¦ķà¦¨": 5014,
      "à¦®à¦ķà¦¬": 5015,
      "à¦®à¦ķà¦¹": 5016,
      "à¦ªà¦ķà¦¦": 5017,
      "Ġà¦ħà¦§à¦®": 5018,
      "Ġà¦ħà¦§à¦¸": 5019,
      "à¦¶à¦ķà¦¸à¦®": 5020,
      "Ġà¦Ĳà¦¯": 5021,
      "Ġà¦Ĳà¦®": 5022,
      "Ġà¦Ĩà¦¶à¦¤à¦¬": 5023,
      "Ġà¦ħà¦¬à¦¸à¦°à¦ªà¦¤": 5024,
      "Ġà¦ħà¦¬à¦¸à¦°à¦Ĺ": 5025,
      "Ġà¦ħà¦¤à¦Ĺ": 5026,
      "Ġà¦Ĩà¦ķà¦¬à¦°à¦ķ": 5027,
      "à¦ĭà¦¤à¦ĩ": 5028,
      "à§İà¦¸à¦°": 5029,
      "à§İà¦¸à¦ķà¦ķ": 5030,
      "à¦·à¦ķà¦¨": 5031,
      "à¦·à¦ķà¦®": 5032,
      "à¦·à¦ķà¦ªà¦¦": 5033,
      "à¦·à¦ķà¦®à¦¹à¦²": 5034,
      "à¦·à¦ķà¦¬à¦¨à¦Ń": 5035,
      "Ġà¦Ĩà¦¦à¦Ń": 5036,
      "Ġà¦Ĩà¦¦à¦®à¦ķ": 5037,
      "Ġà¦Ĩà¦¦à¦®à¦¬": 5038,
      "à¦¨à¦ķà¦ķ": 5039,
      "à¦¨à¦ķà¦ļ": 5040,
      "à¦ªà¦¦à¦¤": 5041,
      "à¦ªà¦¦à¦®": 5042,
      "à¦ªà¦¦à¦Ł": 5043,
      "à¦ªà¦¦à¦Ĺ": 5044,
      "à¦ªà¦¦à¦¤à¦®": 5045,
      "Ġà¦ıà¦²à¦ıà¦²": 5046,
      "Ġà¦ıà¦²à¦ıà¦²à¦¬": 5047,
      "à¦¸à¦®à¦ŀ": 5048,
      "Ġà¦Ĺà¦²à¦¦à¦¸": 5049,
      "à¦Ĺà¦°à¦°": 5050,
      "à¦¬à¦ªà¦¥": 5051,
      "à¦¸à¦¨à¦¸": 5052,
      "à¦¸à¦¨à¦ķà¦°": 5053,
      "Ġà¦ªà¦¥à¦°": 5054,
      "Ġà¦ªà¦¥à¦ķ": 5055,
      "Ġà¦ªà¦¥à¦ĩ": 5056,
      "Ġà¦ªà¦¥à¦Ĺ": 5057,
      "Ġà¦ªà¦¥à¦¹": 5058,
      "Ġà¦ªà¦¥à¦ĵ": 5059,
      "Ġà¦ªà¦¥à¦¸à¦Ļ": 5060,
      "Ġà¦¬à¦²à¦¤à¦ĵ": 5061,
      "à¦Łà¦ķà¦ķ": 5062,
      "à¦Łà¦ķà¦¶": 5063,
      "à¦Łà¦ķà¦¥": 5064,
      "à¦Łà¦ķà¦ĵ": 5065,
      "à¦¬à¦¤à¦ĩ": 5066,
      "à¦¬à¦¤à¦¸à¦®": 5067,
      "à¦¦à¦°à¦Ł": 5068,
      "à¦¼à§Ģ'": 5069,
      "à¦¼à§Ģ?<": 5070,
      "à¦¼à§Ģ',": 5071,
      "Ġà¦ķà¦²à¦ª": 5072,
      "Ġà¦ķà¦²à¦ĵ": 5073,
      "Ġà¦ķà¦²à¦ķà¦²": 5074,
      "Ġà¦ķà¦²à¦®à¦¯": 5075,
      "Ġà¦ķà¦²à¦®à¦¹": 5076,
      "à¦¨à¦Łà¦°": 5077,
      "à¦¨à¦Łà¦«": 5078,
      "Ġà¦®à¦¹à¦¡": 5079,
      "Ġà¦®à¦¹à§İà¦ª": 5080,
      "Ġà¦ĺà¦°à¦ľ": 5081,
      "Ġà¦Ĺà¦£à¦°": 5082,
      "Ġà¦Ĺà¦£à¦¬": 5083,
      "Ġà¦Ĺà¦£à¦ªà¦°": 5084,
      "Ġà¦Ĺà¦£à¦¸à¦¹": 5085,
      "Ġà¦Ĺà¦£à¦§à¦°": 5086,
      "Ġà¦Ĺà¦£à¦Ĩà¦ĵà¦¯": 5087,
      "Ġà¦Ĺà¦£à¦¸à¦®à¦¬": 5088,
      "à¦ĥâĢĶ": 5089,
      "à¦ĩà¦°à¦Ł": 5090,
      "Ġà§¨à§¦à§¨à§¯": 5091,
      "à¦ĸà¦ķà¦ĩ": 5092,
      "à¦ĸà¦ķà¦Ĺ": 5093,
      "à¦ĸà¦ķà¦¬à¦°": 5094,
      "à¦ĸà¦ķà¦¬à¦¨": 5095,
      "à¦ĸà¦ķà¦ļà¦ķ": 5096,
      "à¦ĸà¦ķà¦¸à¦¤": 5097,
      "Ġà¦ĵà¦ªà¦°à¦ĵ": 5098,
      "Ġà¦ĵà¦ªà¦°à¦®à¦¹à¦²": 5099,
      "à¦ĩà¦ķà¦Ĺ": 5100,
      "Ġà¦¨à¦¤à¦®": 5101,
      "à§©à§®à§Ń": 5102,
      "à§©à§¯à§§": 5103,
      "à¦Ĺà¦¨à¦¸": 5104,
      "à¦Ĺà¦¨à¦ĩ": 5105,
      "à¦Ĺà¦¨à¦ª": 5106,
      "à¦°à¦ľà¦²": 5107,
      "à¦°à¦ľà¦¦": 5108,
      "à¦°à¦ľà¦Ĺà§İ": 5109,
      "à§¬à§¦": 5110,
      "à§Ńà§ª": 5111,
      "à¦·à¦¤à¦¸": 5112,
      "à¦·à¦¤à¦ĩ": 5113,
      "à¦·à¦¤à¦Ń": 5114,
      "à¦īà¦¨à¦²": 5115,
      "Ġà¦Ĩà¦ĩà¦¨à¦¸": 5116,
      "Ġà§§à§¯à§©à§¬": 5117,
      "Ġà¦ħà¦ªà¦°à¦ľà¦¨à¦ķ": 5118,
      "Ġà¦¶à¦¤à¦Ĺ": 5119,
      "Ġà¦¶à¦¤à¦ľà¦¨à¦®": 5120,
      "Ġà¦ķà¦¤à¦ľà¦¨à¦ĩ": 5121,
      "Ġà¦ªà¦¦à¦Ľ": 5122,
      "Ġà¦ªà¦¦à¦®à¦°": 5123,
      "à¦Ĺà¦²à¦®": 5124,
      "à¦Ĺà¦²à¦¸": 5125,
      "à¦Ĺà¦²à¦ĩ": 5126,
      "à¦Ĺà¦²à¦ĸ": 5127,
      "à¦Ĺà¦²à¦¸à¦®": 5128,
      "à¦¬à¦ķà¦¦": 5129,
      "à¦¬à¦ķà¦Ľ": 5130,
      "à¦¬à¦ķà¦Ĺ": 5131,
      "Ġà¦¶à¦¬à¦¦": 5132,
      "à¦¦à¦²à¦°": 5133,
      "à¦¨à¦¬à¦ĩ": 5134,
      "à¦¨à¦¬à¦¸à¦¨": 5135,
      "à¦¾';": 5136,
      "à¦Ńà¦¬à¦Ł": 5137,
      "à¦Ńà¦¬à¦ĵ": 5138,
      "à¦¤à¦¤à¦¸": 5139,
      "Ġà¦īà¦ªà¦°à¦ĩ": 5140,
      "Ġà¦¬à¦ķà¦¨": 5141,
      "à¦®à¦¬à¦¦à¦²": 5142,
      "Ġà¦«à¦²à¦Ł": 5143,
      "à¦¸à¦°à¦°": 5144,
      "à¦¸à¦°à¦ŀ": 5145,
      "à¦¸à¦°à¦²à¦¤": 5146,
      "Ġà¦ıà¦¦à¦«": 5147,
      "Ġà¦Ĩà¦ªà¦¬": 5148,
      "Ġà¦Ĩà¦ªà¦ľ": 5149,
      "Ġà¦Ĩà¦ªà¦¸à¦ķ": 5150,
      "à¦¸à¦¦à¦Ł": 5151,
      "à¦¸à¦¦à¦¹à¦¤": 5152,
      "Ġà¦Ĺà¦°à¦Ĺà¦°": 5153,
      "à¦¸à¦ķà¦ķ": 5154,
      "à¦¸à¦ķà¦®": 5155,
      "à¦ħà¦¯": 5156,
      "à¦ħà¦®": 5157,
      "à¦ħà¦ľ": 5158,
      "à¦ħà¦Ĺ": 5159,
      "à¦ħà¦¡": 5160,
      "à¦ħà¦«": 5161,
      "à¦ħà¦¬à¦°": 5162,
      "à¦ħà¦ŀ": 5163,
      "à¦ħà¦¹à¦®": 5164,
      "à¦ħà¦®à¦°": 5165,
      "à¦ħà¦ķà¦¬": 5166,
      "à¦ħà¦¬à¦¶": 5167,
      "à¦ħà¦¦à¦®": 5168,
      "à¦ħà¦¸à¦®à¦¯": 5169,
      "Ġà¦¸à¦¦à¦®": 5170,
      "à¦¤à¦®à¦Ń": 5171,
      "à¦¤à¦®à¦ħà¦§à¦®": 5172,
      "à¦¸à¦¹à¦ľ": 5173,
      "à¦¸à¦¹à¦ķà¦°": 5174,
      "à¦¸à¦¹à¦ķà¦ķ": 5175,
      "Ġà¦¶à¦¹à¦°à¦ķ": 5176,
      "Ġà¦¶à¦¹à¦°à¦Ĺ": 5177,
      "Ġà¦ıà¦¸à¦¬à¦ĵ": 5178,
      "à¦¨à¦°à¦°": 5179,
      "à¦Ĺà¦®à¦ĵ": 5180,
      "à¦§à¦¨à¦ķà¦°": 5181,
      "à¦°à¦¹à¦£à¦ĵ": 5182,
      "Ġà¦ľà¦®à¦ľ": 5183,
      "à¦ķà¦Ńà¦°": 5184,
      "à¦¬à¦¦à¦°à¦¬": 5185,
      "Ġà¦ľà¦²à¦¦": 5186,
      "Ġà¦ľà¦²à¦Ł": 5187,
      "Ġà¦ıà¦¨à¦¡": 5188,
      "Ġà¦¤à¦¤à¦¸": 5189,
      "Ġà¦¤à¦¤à¦Ĺ": 5190,
      "à¦¨à¦Ĺà¦°à¦ļ": 5191,
      "à¦®à¦¸à¦ľ": 5192,
      "Ġà¦Ĺà¦¡à¦«": 5193,
      "à¦łà¦ķà¦ĩ": 5194,
      "à¦¯à¦¸à¦°à¦ķ": 5195,
      "à¦¯à¦¸à¦°à¦¬": 5196,
      "à¦«à¦²à¦ĵà¦ķ": 5197,
      "Ġà¦¹à¦ķà¦ĵ": 5198,
      "à¦Łà¦²à¦Ł": 5199,
      "à¦Łà¦²à¦ª": 5200,
      "à¦Łà¦²à¦Ń": 5201,
      "à¦¬à¦§à¦°": 5202,
      "Ġà¦¦à¦¶à¦¦": 5203,
      "Ġà¦¦à¦¶à¦Ĺ": 5204,
      "Ġà¦¦à¦¶à¦ļ": 5205,
      "Ġà¦¦à¦¶à¦Ń": 5206,
      "Ġà¦¦à¦¶à¦ľà¦¨à¦ķ": 5207,
      "Ġà¦ħà¦Ĺà¦£": 5208,
      "Ġà¦ħà¦Ĺà¦Ń": 5209,
      "Ġà¦ħà¦Ĺà¦£à¦¤": 5210,
      "Ġà¦īà§İà¦¸à¦Ł": 5211,
      "à¦¢à¦ª": 5212,
      "à¦¢à¦²à¦¤": 5213,
      "à¦¢à¦²à¦¬": 5214,
      "Ġà¦ĸà¦¬à¦°à¦ĩ": 5215,
      "Ġà¦ĸà¦¬à¦°à¦ĵ": 5216,
      "Ġà¦Ĩà¦§à¦®": 5217,
      "Ġà¦Ĩà¦§à¦®à¦£": 5218,
      "Ġà¦Ĩà¦§à¦ªà¦¯": 5219,
      "Ġà¦Ĩà¦§à¦¡à¦ľà¦¨": 5220,
      "à¦¿à¦ĥ!<": 5221,
      "à¦¨à¦¸à¦ĩ": 5222,
      "à¦¨à¦¸à¦Ń": 5223,
      "Ġà¦ħà¦¦à¦°à¦ķ": 5224,
      "à¦¤à¦²à¦ª": 5225,
      "à¦¤à¦²à¦¬à¦¨": 5226,
      "Ġà¦°à¦ķà¦®à¦Ł": 5227,
      "Ġà¦°à¦ķà¦®à¦ĩ": 5228,
      "à¦ĸà¦¬à¦ĩ": 5229,
      "à¦ĸà¦¬à¦ĵ": 5230,
      "à¦ĸà¦¬à¦°à¦ķ": 5231,
      "Ġà¦¦à¦°à¦ķà¦·": 5232,
      "Ġà¦¦à¦¶à¦ķà¦ľ": 5233,
      "Ġà¦¦à¦¶à¦ķà¦ĵ": 5234,
      "à§ĩ'-": 5235,
      "à§ĩ';": 5236,
      "à¦¯à¦¦à¦¶": 5237,
      "Ġà¦ªà¦¦à¦ķà¦Ł": 5238,
      "Ġà¦ªà¦¦à¦ķà¦Ĺ": 5239,
      "Ġà¦ªà¦¦à¦ķà¦ľà¦¯": 5240,
      "Ġà¦¦à¦°à¦ĸ": 5241,
      "à¦ľà¦¤à¦ĩ": 5242,
      "à¦ľà¦¤à¦ª": 5243,
      "à¦ľà¦¤à¦ªà¦°": 5244,
      "Ġà¦¸à¦¹à¦ľà¦ĵ": 5245,
      "Ġà¦¨à¦¬à¦īà¦¦": 5246,
      "Ġà¦¨à¦ľà¦°à¦¬à¦¨": 5247,
      "Ġà¦Ńà¦¬à¦¨à¦ĩ": 5248,
      "Ġà¦Ńà¦¬à¦¨à¦ĵ": 5249,
      "Ġà¦īà§İà¦ļ": 5250,
      "Ġà¦īà§İà¦ķà¦°": 5251,
      "à¦Ĩà¦ĩà¦ıà¦«": 5252,
      "à¦§à¦¤à¦¸": 5253,
      "à¦®à¦§à¦°": 5254,
      "à¦Łà¦¤à¦ĩ": 5255,
      "Ġà¦¹à¦¨à¦ĵà¦¨": 5256,
      "Ġà¦¹à¦¨à¦¹à¦¨": 5257,
      "Ġà¦¬à¦²à¦¬à§İ": 5258,
      "à¦ķà¦¶à¦ªà¦ķ": 5259,
      "à¦¶à¦Ĺà¦łà¦¨": 5260,
      "à¦ľà¦¨à¦ķà¦ĵ": 5261,
      "Ġà¦ĩà¦¶à¦®": 5262,
      "à¦¿')": 5263,
      "à¦¿',": 5264,
      "Ġà¦¸à¦¬à¦ķà¦¥": 5265,
      "à¦Ĺà¦£à¦¸": 5266,
      "à¦Ĺà¦£à¦ª": 5267,
      "à¦Ĺà¦£à¦§à¦°": 5268,
      "à¦Ĺà¦£à¦Ńà¦¬à¦¨": 5269,
      "Ġà¦ķà¦·à¦Ľ": 5270,
      "Ġà§¦à§Ń": 5271,
      "à¦¦à¦¶à¦ľà¦¨": 5272,
      "Ġà¦Ĩà¦¹à¦¨": 5273,
      "Ġà¦Ĩà¦¹à¦¹": 5274,
      "à§¯à§¦à§¦": 5275,
      "Ġà§§à§¨à§§": 5276,
      "Ġà¦Ĩà¦ĩà¦ĵà¦¯": 5277,
      "Ġà¦Ĩà¦ĩà¦¸à¦ķ": 5278,
      "Ġà¦Ĩà¦ĩà¦ĩà¦ı": 5279,
      "Ġà¦ľà¦Ĺà¦¤à¦ĩ": 5280,
      "à¦«à¦°à¦°": 5281,
      "à¦«à¦°à¦īà¦²": 5282,
      "à¦ķà¦¸à¦¨à¦ķ": 5283,
      "à¦²à¦®à¦Ĺ": 5284,
      "à¦²à¦®à¦£": 5285,
      "à¦¶à¦²à¦Ĺà¦¤": 5286,
      "à¦¨à¦ĵà¦¨": 5287,
      "Ġà¦ıà¦®à¦ıà¦«": 5288,
      "à¦¯à¦¥à¦ĩ": 5289,
      "à¦ľà¦ķà¦¸à¦®": 5290,
      "Ġà¦Ĩà¦Łà¦¬": 5291,
      "Ġà¦ħà¦®à¦²à¦ķ": 5292,
      "à¦¬à¦¹à¦£": 5293,
      "Ġà¦ķà¦¨à¦¡": 5294,
      "Ġà¦ķà¦¨à¦ķà¦°": 5295,
      "Ġà¦ķà¦¨à¦¡à¦®": 5296,
      "à¦®à¦¹à¦¨à¦¨": 5297,
      "à¦¸à¦Ńà¦°": 5298,
      "Ġà§§à§®à§¬à§¦": 5299,
      "à¦¸à¦Łà¦¬": 5300,
      "Ġà¦ĭà¦¦": 5301,
      "Ġà¦ĭà¦ľ": 5302,
      "à¦¯à¦ªà¦¦à¦ķ": 5303,
      "Ġà¦Ĭà¦·": 5304,
      "Ġà¦Ĭà¦¨à¦®": 5305,
      "Ġà¦Ĭà¦łà¦¤": 5306,
      "Ġà¦Ĭà¦¨à¦·": 5307,
      "à¦ķà¦¡à¦¨": 5308,
      "Ġà§§à§¯à§¯à§©": 5309,
      "à¦¬à¦ľà¦¨à¦°": 5310,
      "à¦¬à¦ľà¦¨à¦ª": 5311,
      "à¦Łà¦¬à¦²à¦ķ": 5312,
      "à¦ªà¦£à¦Ń": 5313,
      "Ġà¦ķà¦Łà¦®à¦Ł": 5314,
      "à¦²à¦Ńà¦Ń": 5315,
      "à¦ĩà¦¸à¦ķà¦²": 5316,
      "à¦¥à¦ķà¦·": 5317,
      "à¦¥à¦ķà¦°à¦£": 5318,
      "Ġà¦ĭà¦£à¦Ĺ": 5319,
      "Ġà§§à§¯à§¦à§¦": 5320,
      "à¦¨à¦¶à¦°": 5321,
      "à¦ĵà¦¨à¦¸à¦¹": 5322,
      "à¦¬à¦¤à¦¨à¦¦": 5323,
      "à¦ľà¦¸à¦ªà¦¤": 5324,
      "à¦īà¦ľà¦«": 5325,
      "à¦ľà¦¦à¦°à¦¬": 5326,
      "Ġà¦ħà¦¨à¦²à¦¬à¦°": 5327,
      "Ġà¦ĸà¦°à¦ļà¦Ł": 5328,
      "à¦¬à¦ĩà¦ªà¦°à¦¬à¦°": 5329,
      "à¦¹à¦°à¦£à¦ĵ": 5330,
      "Ġà¦ĵà¦ªà¦°à¦ķ": 5331,
      "à¦¬à¦°à¦£à¦ķ": 5332,
      "Ġà¦¦à¦¶à¦®à¦ĩ": 5333,
      "Ġà¦ªà¦²à¦ķà¦ĵ": 5334,
      "Ġà¦Īà¦ª": 5335,
      "à§¨à§¦à§¦à§©": 5336,
      "à¦ķà¦°à¦£à¦Ł": 5337,
      "à¦ķà¦°à¦£à¦¶": 5338,
      "à¦ķà¦°à¦£à¦Ń": 5339,
      "à¦ķà¦°à¦£à¦Ĺà¦¤à¦Ń": 5340,
      "à¦¼',": 5341,
      "à¦¼'-": 5342,
      "Ġà¦¸à¦«à¦°à¦¸à¦Ļ": 5343,
      "Ġà¦¸à¦«à¦Łà¦ĵà¦¯": 5344,
      "à¦¸à¦°à¦£à¦ķ": 5345,
      "à§ĩ);": 5346,
      "Ġà¦Ĩà¦ĸà¦¡": 5347,
      "Ġà¦ľà¦¨à¦¸à¦®à¦°": 5348,
      "à¦¤à¦ľà¦Ĺà¦¤": 5349,
      "Ġà§§à§©à§¨": 5350,
      "Ġà§§à§©à§®": 5351,
      "Ġà§§à§©à§®à§«": 5352,
      "Ġà§§à§©à§¯à§¯": 5353,
      "Ġà¦īà§İà¦¸à¦¬à¦Ĺ": 5354,
      "à¦²à¦ľà¦Ĺà¦¤": 5355,
      "à¦Łà¦ªà¦ĵà¦¯": 5356,
      "à§Ģ'âĢĶ": 5357,
      "Ġà¦ļà¦°à¦®à¦ªà¦¤": 5358,
      "Ġà¦ĩà¦īà¦ıà¦ĩ": 5359,
      "Ġà§§à§¯à§¬à§®": 5360,
      "Ġà¦Ķà¦·à¦§à¦¬": 5361,
      "à¦¸à¦«à¦Łà¦ĵà¦¯": 5362,
      "Ġà¦Ĩà¦¬à¦¹à¦Ł": 5363,
      "à¦Ĩà¦²à¦¹": 5364,
      "Ġà¦Ĩà¦ķà¦¬à¦°à¦ĵ": 5365,
      "à¦¬à¦ľà¦Ĺà¦¤": 5366,
      "à¦ķà¦Ĺà¦®à¦¨": 5367,
      "à¦®à¦®à¦®à¦®à¦¯": 5368,
      "à¦ĩà¦¶à¦¤à¦®": 5369,
      "Ġà¦¦à¦®à¦¨à¦ĵ": 5370,
      "à¦¬à¦£à¦Ł": 5371,
      "à¦¬à¦£à¦¬à¦°": 5372,
      "Ġà¦¬à¦Łà¦®": 5373,
      "Ġà¦īà§İà¦ķà¦¨": 5374,
      "à§ĭ'-": 5375,
      "Ġà¦ķà¦¬à¦ļà¦§": 5376,
      "à¦ıà¦ķà¦§": 5377,
      "à¦ıà¦ķà¦¹": 5378,
      "à¦¹à¦ľà¦°à¦¤": 5379,
      "à¦Ĩà¦¨à¦«à¦²": 5380,
      "Ġà¦¸à¦«à¦²à¦¤à¦®": 5381,
      "à¦¡à¦Ńà¦¨": 5382,
      "à¦¡à¦Ńà¦£": 5383,
      "Ġà¦¨à¦°à¦ķà¦ķ": 5384,
      "Ġà¦¹à¦ĩà¦¹à¦ĩ": 5385,
      "Ġà¦ħà¦¹à¦°à¦¹": 5386,
      "à¦ľà¦Ĺà§İ": 5387,
      "à¦®à¦ķà¦°à¦£à¦ķ": 5388,
      "Ġà§§à§¯à§«à§¨": 5389,
      "Ġà¦ªà¦¤à¦¨à¦ĩ": 5390,
      "à¦īà¦ªà¦ª": 5391,
      "à¦¬à¦Łà¦ĵ": 5392,
      "Ġà¦¨à¦°à¦ĵà¦¯": 5393,
      "Ġà¦Ĺà¦ľà¦ĵà¦¯": 5394,
      "Ġà¦¸à¦®à¦Ŀà¦¦": 5395,
      "à¦Ŀà¦²à¦ĩ": 5396,
      "à¦Īà¦¶": 5397,
      "à¦²à¦ĺà¦¡": 5398,
      "à¦Łà¦¦à¦²à¦ĩ": 5399,
      "à¦Łà¦¦à¦²à¦ĵ": 5400,
      "à¦Ńà§İà¦¸à¦¤": 5401,
      "à¦ķà¦¸à¦®à¦Ĺ": 5402,
      "à¦Łà¦¦à¦²à¦ķ": 5403,
      "à¦Ĺà¦łà¦ķà¦°": 5404,
      "à¦¤à¦ļà¦°à¦ķ": 5405,
      "à¦ķà¦°à¦¤à¦®": 5406,
      "Ġà¦¨à¦²à¦ĸà¦¨": 5407,
      "Ġà¦®à¦°à¦£à¦ķ": 5408,
      "Ġà¦®à¦°à¦£à¦¶": 5409,
      "Ġà¦®à¦°à¦£à¦ĵ": 5410,
      "Ġà¦®à¦°à¦£à¦ªà¦£": 5411,
      "Ġà¦ľà¦Ĺà¦¤à¦ķ": 5412,
      "Ġà¦ľà¦Ĺà§İà¦¬": 5413,
      "Ġà¦ĵà¦ľà¦¨à¦¸": 5414,
      "Ġà¦ĵà¦ľà¦¨à¦ľà¦Ł": 5415,
      "à¦®à¦¸à¦®à¦Ĺ": 5416,
      "Ġà¦¨à¦Ĺà¦°à¦°": 5417,
      "Ġà¦ħà¦ªà¦¶à¦¨à¦ĵ": 5418,
      "à¦¤à¦¸à¦ĩ": 5419,
      "à§Ģà¦Ĥ,": 5420,
      "à¦Ĺà¦°à¦£à¦ķ": 5421,
      "Ġà¦Ńà¦Ĺà¦¬à¦¤": 5422,
      "à¦īà¦¬à¦¨à¦Ł": 5423,
      "à¦ľà¦ĸà¦¬à¦°à¦ĵ": 5424,
      "Ġà¦ªà¦ªà¦ª": 5425,
      "à§Ģ);": 5426,
      "à¦§à¦°à¦¨à¦¦": 5427,
      "Ġà¦ıà¦ķà¦ªà¦²à¦ķ": 5428,
      "Ġà¦ľà¦¨à¦ªà¦¦à¦Ł": 5429,
      "à§©à§«à§ªà§Ń": 5430,
      "à¦°à¦®à¦¨à¦¸à¦Ļ": 5431,
      "Ġà¦ļà¦®à¦ķà¦Ł": 5432,
      "Ġà§§à§Ńà§«à§Ń": 5433,
      "à¦°à¦ªà¦¦à¦Ł": 5434,
      "à¦¨à¦¶à¦Łà¦ª": 5435,
      "à¦¯à¦ªà¦¦à¦¸": 5436,
      "à¦¯à¦ªà¦¦à¦ª": 5437,
      "Ġà¦¬à¦īà¦¸à¦¹": 5438,
      "Ġà¦®à¦ĸà¦¦": 5439,
      "à¦§à¦¶à¦¤à¦¬à¦Ľà¦°à¦ª": 5440,
      "Ġà¦ıà¦ķà¦¨à¦ľà¦°": 5441,
      "à¦Ĩà¦¸à¦°à¦Ł": 5442,
      "à¦Ĳà¦ķà¦®à¦¤": 5443,
      "à¦¯à§İà¦ĵ": 5444,
      "à¦¬à¦°à¦ķà¦¤": 5445,
      "à¦¬à¦°à¦ķà¦¤à¦°": 5446,
      "à¦¬à¦ªà¦¨à¦¸à¦®": 5447,
      "à¦£à¦Ĺà¦¹": 5448,
      "Ġà¦ĩà¦®à¦¨à¦ĵ": 5449,
      "à¦ıà¦®à¦¨à¦ķ": 5450,
      "à¦Ĩà¦ĩà¦ķà¦¨": 5451,
      "à¦ħà¦ªà¦®": 5452,
      "à¦ħà¦ªà¦ķà¦°": 5453,
      "Ġà¦¦à¦®à¦ķà¦²à¦¬": 5454,
      "Ġà§¯à§«à§«à§®": 5455,
      "à¦ķà¦ľà¦®à¦ķà¦ª": 5456,
      "à¦¯à¦Łà¦ķà¦¦": 5457,
      "Ġà¦¬à¦°à¦ķà¦¤à¦ĵ": 5458,
      "Ġà¦ļà¦¶à¦®à¦ĸ": 5459,
      "à¦Ĩà¦§à¦ľà¦¨": 5460,
      "Ġà¦Ĭà¦¨à¦Ĩà¦¶": 5461,
      "à§§à§¯à§«à§¨": 5462,
      "à¦Ĭà¦¨à¦ªà¦ŀ": 5463,
      "à¦¬à¦¦à¦°à¦°": 5464,
      "à¦£à¦¸à¦ŀ": 5465,
      "à¦ıà¦ķà¦¦à¦®": 5466,
      "Ġà¦īà¦ªà¦ķà¦°à¦£à¦Ĺ": 5467,
      "à¦·à¦ľà¦¨à¦ĵ": 5468,
      "à¦ĵà¦ĵà¦ĵà¦Ĩ": 5469,
      "Ġà¦°à¦£à¦ľ": 5470,
      "Ġà¦ĸà¦Łà¦ĸà¦Ł": 5471,
      "Ġà¦ıà¦¬à¦Ľà¦°à¦ĩ": 5472,
      "Ġà¦ıà¦¸à¦ıà¦¸à¦ıà¦«": 5473,
      "à¦®à¦īà¦¦à¦¦": 5474,
      "à¦¸à¦ķà¦¦à¦²à¦Ĺ": 5475,
      "Ġà¦¨à¦¬à¦¦à¦®": 5476,
      "à¦Ľà¦ĩà¦ĸà¦²": 5477,
      "à¦ļà¦¦à¦«": 5478,
      "Ġà¦°à¦Ĺà¦ļà¦Ł": 5479,
      "Ġà¦ªà¦°à¦§à¦¨à¦²": 5480,
      "à§¨à§¨à§©à§©à§®à§Ń": 5481,
      "à§¨à§¨à§©à§©à§«à§ªà§Ń": 5482,
      "......!<": 5483,
      "à¦°à§İà¦¹": 5484,
      "à¦°à¦Ĩà¦ĸà¦¡": 5485,
      "à¦¨à¦Ĩà¦²à¦ķ": 5486,
      "à¦¯à¦īà¦ªà¦¦": 5487,
      "Ġà¦ķà¦¶à¦¤à¦ķ": 5488,
      "Ġà¦¬à¦ķà¦¬à¦ķ": 5489,
      "Ġà¦¬à¦Ĺà¦²à¦¦": 5490,
      "à¦¦à¦°à¦®à¦¹à¦²": 5491,
      "à¦¦à¦°à¦ĵà¦²": 5492,
      "à¦¦à¦ļà¦¶à¦®": 5493,
      "à¦Łà¦ªà¦¤à¦Ļ": 5494,
      "à¦ĩà¦ĩà¦°à¦¨": 5495,
      "Ġà¦ıà¦ıà¦²à¦ª": 5496,
      "Ġà¦ıà¦ıà¦¸à¦Ĩà¦ĩà¦ķ": 5497,
      "Ġà¦ıà¦ıà¦®à¦ıà¦¸": 5498,
      "Ġà¦®à¦īà¦¤à¦ĩ": 5499,
      "Ġà¦¤à§İà¦¸à¦¤": 5500,
      "à¦ĵà¦¸à¦®à¦Ĺ": 5501,
      "Ġà¦¶à¦°à¦¬à¦¤à¦Ł": 5502,
      "Ġà¦ļà¦ªà¦ļà¦ª": 5503,
      "Ġà¦Ĺà¦²à¦ķà¦®": 5504,
      "Ġà¦Ńà§İà¦¸à¦¨": 5505,
      "Ġà¦ıà¦ķà¦ĩà¦ķà¦¥": 5506,
      "Ġà¦ĩà¦¹à¦ľà¦Ĺà¦¤": 5507,
      "Ġà¦ıà¦²à¦ıà¦²à¦ıà¦®": 5508,
      "Ġà¦Ĩà¦ĩà¦ĩà¦ıà¦²à¦Ł": 5509,
      "Ġà¦ıà¦®à¦ıà¦«à¦ıà¦¸": 5510,
      "Ġà§¯à§«à§«à§®à§¯à§¦à§¦": 5511,
      "à¦ĵà¦ĵà¦ĵà¦Ĩà¦Ĩà¦¯": 5512,
      "à§¨à§¨à§©à§©à§®à§Ńà§©à§¯à§§": 5513,
      "à§¨à§¨à§©à§©à§«à§ªà§Ńà§¨à§¨": 5514
    },
    "merges": [
      [
        "à",
        "¦"
      ],
      [
        "à",
        "§"
      ],
      [
        "Ġ",
        "à¦"
      ],
      [
        "à¦",
        "¾"
      ],
      [
        "à§",
        "ĩ"
      ],
      [
        "à¦",
        "°"
      ],
      [
        "à¦",
        "¿"
      ],
      [
        "à§",
        "į"
      ],
      [
        "à¦",
        "¨"
      ],
      [
        "à¦",
        "¯"
      ],
      [
        "à¦",
        "¤"
      ],
      [
        "à¦",
        "ķ"
      ],
      [
        "à¦",
        "²"
      ],
      [
        "à¦",
        "¼"
      ],
      [
        "à¦",
        "¬"
      ],
      [
        "Ġà¦",
        "ķ"
      ],
      [
        "à§",
        "ģ"
      ],
      [
        "à¦",
        "®"
      ],
      [
        "Ġà¦",
        "¬"
      ],
      [
        "Ġà¦",
        "¸"
      ],
      [
        "à§",
        "ĭ"
      ],
      [
        "à¦",
        "¦"
      ],
      [
        "Ġà¦",
        "ª"
      ],
      [
        "à¦",
        "¸"
      ],
      [
        "Ġà¦",
        "Ĩ"
      ],
      [
        "Ġà¦",
        "¨"
      ],
      [
        "à¦",
        "Ł"
      ],
      [
        "à¦",
        "Ľ"
      ],
      [
        "à¦",
        "ĩ"
      ],
      [
        "Ġà¦",
        "ı"
      ],
      [
        "Ġà¦",
        "¦"
      ],
      [
        "à¦¼",
        "à§ĩ"
      ],
      [
        "Ġà¦",
        "®"
      ],
      [
        "à¦",
        "ª"
      ],
      [
        "Ġà¦",
        "¹"
      ],
      [
        "à¦",
        "¶"
      ],
      [
        "à§",
        "Ģ"
      ],
      [
        "à¦",
        "ľ"
      ],
      [
        "Ġà¦",
        "¤"
      ],
      [
        "Ġà¦ķ",
        "à¦°"
      ],
      [
        "à¦",
        "Ĺ"
      ],
      [
        "à¦",
        "·"
      ],
      [
        "à¦",
        "ĸ"
      ],
      [
        "à¦",
        "¡"
      ],
      [
        "Ġà¦",
        "ħ"
      ],
      [
        "à¦",
        "ļ"
      ],
      [
        "à¦¼",
        "à¦¾"
      ],
      [
        "à¦",
        "§"
      ],
      [
        "Ġà¦",
        "ľ"
      ],
      [
        "à¦",
        "¹"
      ],
      [
        "à¦",
        "¥"
      ],
      [
        "Ġà¦",
        "¯"
      ],
      [
        "à¦",
        "ĵ"
      ],
      [
        "Ġà¦",
        "¶"
      ],
      [
        "Ġà¦",
        "ļ"
      ],
      [
        "à¦",
        "£"
      ],
      [
        "à¦",
        "Ĥ"
      ],
      [
        "Ġà¦",
        "Ĺ"
      ],
      [
        "Ġà¦",
        "°"
      ],
      [
        "à¦",
        "Ń"
      ],
      [
        "Ġà¦",
        "Ń"
      ],
      [
        "Ġà¦ı",
        "à¦ķ"
      ],
      [
        "Ġà¦¹",
        "à¦¯"
      ],
      [
        "Ġà¦",
        "ĵ"
      ],
      [
        "Ġà¦",
        "¥"
      ],
      [
        "Ġà¦",
        "ī"
      ],
      [
        "Ġà¦",
        "²"
      ],
      [
        "à¦",
        "ģ"
      ],
      [
        "à¦",
        "«"
      ],
      [
        "Ġà¦ª",
        "à¦°"
      ],
      [
        "Ġà¦",
        "Ľ"
      ],
      [
        "Ġà¦",
        "ĸ"
      ],
      [
        "Ġà¦",
        "«"
      ],
      [
        "Ġà¦¬",
        "à¦²"
      ],
      [
        "Ġà¦Ĩ",
        "à¦®"
      ],
      [
        "à§",
        "Ĥ"
      ],
      [
        "à¦",
        "ł"
      ],
      [
        "Ġà¦¸",
        "à¦®"
      ],
      [
        "Ġ",
        "à§"
      ],
      [
        "à§",
        "ĥ"
      ],
      [
        "à§ĩ",
        ","
      ],
      [
        "à¦ľ",
        "à¦¨"
      ],
      [
        "à¦°",
        "à¦ķ"
      ],
      [
        "à¦ĵ",
        "à¦¯"
      ],
      [
        "Ġà¦ı",
        "à¦ĩ"
      ],
      [
        "Ġà¦ħ",
        "à¦¨"
      ],
      [
        "à¦°",
        "à¦¤"
      ],
      [
        "Ġà¦",
        "ĩ"
      ],
      [
        "Ġà¦",
        "§"
      ],
      [
        "à¦¾",
        "à¦ģ"
      ],
      [
        "Ġà¦Ĩ",
        "à¦°"
      ],
      [
        "à¦¼",
        "à¦¿"
      ],
      [
        "à¦",
        "Ļ"
      ],
      [
        "à¦ĸ",
        "à¦¨"
      ],
      [
        "Ġà¦ľ",
        "à¦¨"
      ],
      [
        "Ġà¦",
        "ĺ"
      ],
      [
        "à¦®",
        "à¦¨"
      ],
      [
        "à¦",
        "ī"
      ],
      [
        "e",
        "o"
      ],
      [
        "eo",
        "s"
      ],
      [
        "à¦¾",
        "à¦Ĥ"
      ],
      [
        "à¦ª",
        "à¦°"
      ],
      [
        "Ġà¦Ĩ",
        "à¦²"
      ],
      [
        "Ġà¦®",
        "à¦¨"
      ],
      [
        "à§",
        "¦"
      ],
      [
        "Ġà¦ıà¦ķ",
        "à¦Ł"
      ],
      [
        "à¦¬",
        "à¦°"
      ],
      [
        "à§",
        "Ī"
      ],
      [
        "Ġà¦",
        "¡"
      ],
      [
        "Ġà¦",
        "Ł"
      ],
      [
        "à¦¤",
        "à¦°"
      ],
      [
        "Ġà¦Ĩ",
        "à¦¸"
      ],
      [
        "Ġà¦ķ",
        "à¦¥"
      ],
      [
        "à¦°",
        "à¦£"
      ],
      [
        "?",
        "<"
      ],
      [
        "Ġà¦ķà¦°",
        "à¦¤"
      ],
      [
        "Ġà¦¹",
        "à¦¬"
      ],
      [
        "à¦¾",
        ","
      ],
      [
        "Ġà¦¹",
        "à¦²"
      ],
      [
        "à¦¬",
        "à¦¨"
      ],
      [
        "à¦ª",
        "à¦¨"
      ],
      [
        "â",
        "Ģ"
      ],
      [
        "âĢ",
        "Ķ"
      ],
      [
        "à¦¨",
        "à¦¤"
      ],
      [
        "Ġà¦ı",
        "à¦°"
      ],
      [
        "Ġà¦¸",
        "à¦¬"
      ],
      [
        "Ġà¦ı",
        "à¦¬"
      ],
      [
        "à§",
        "İ"
      ],
      [
        "Ġà¦ħ",
        "à¦¬"
      ],
      [
        "Ġà¦ª",
        "à¦¡"
      ],
      [
        "Ġ",
        "'"
      ],
      [
        "Ġà¦Ĩ",
        "à¦Ľ"
      ],
      [
        "Ġà¦§",
        "à¦°"
      ],
      [
        "à¦",
        "ŀ"
      ],
      [
        "à¦",
        "ı"
      ],
      [
        "Ġà¦Ĩ",
        "à¦Ĺ"
      ],
      [
        "à§",
        "Į"
      ],
      [
        "Ġà¦ķ",
        "à¦¬"
      ],
      [
        "à¦",
        "Ŀ"
      ],
      [
        "à¦ķ",
        "à¦°"
      ],
      [
        "à¦°",
        "à¦¬"
      ],
      [
        "Ġà¦®",
        "à¦¤"
      ],
      [
        "Ġà¦ĵ",
        "à¦¯"
      ],
      [
        "§",
        "à§"
      ],
      [
        "Ġà¦ķà¦°",
        "à¦²"
      ],
      [
        "Ġà¦ļ",
        "à¦²"
      ],
      [
        "à¦°",
        "à¦®"
      ],
      [
        "Ġà¦ı",
        "à¦¸"
      ],
      [
        "Ġà¦¹",
        "à¦¤"
      ],
      [
        "Ġà¦Ĩ",
        "à¦¬"
      ],
      [
        "à¦¿",
        ","
      ],
      [
        "Ġà§",
        "¨"
      ],
      [
        "à¦·",
        "à¦£"
      ],
      [
        "Ġà¦ī",
        "à¦ª"
      ],
      [
        "Ġ",
        "("
      ],
      [
        "à¦¶",
        "à¦¨"
      ],
      [
        "Ġà¦ı",
        "à¦ĸà¦¨"
      ],
      [
        "Ġà¦",
        "¢"
      ],
      [
        "à¦ª",
        "à¦¤"
      ],
      [
        "à¦¯",
        "à¦¬"
      ],
      [
        "à¦¤",
        "à¦¨"
      ],
      [
        "à¦¦",
        "à¦ķ"
      ],
      [
        "Ġà¦¸à¦®",
        "à¦¯"
      ],
      [
        "Ġà¦¹",
        "à¦ļ"
      ],
      [
        "Ġà¦ķà¦°",
        "à¦Ľ"
      ],
      [
        "à¦¼",
        ","
      ],
      [
        "à¦ļ",
        "à¦¨"
      ],
      [
        "à¦®",
        "à¦¤"
      ],
      [
        "à¦¾",
        "-"
      ],
      [
        "Ġà¦¬",
        "à¦¸"
      ],
      [
        "à¦ķ",
        "à¦²"
      ],
      [
        "à¦ķ",
        "à¦Ł"
      ],
      [
        "à¦",
        "Ĩ"
      ],
      [
        "à¦",
        "ĺ"
      ],
      [
        "à§¦",
        "à§"
      ],
      [
        "Ġà§",
        "§à§"
      ],
      [
        "à¦¬",
        "à¦²"
      ],
      [
        "à¦²",
        "à¦ķ"
      ],
      [
        "à¦°",
        "à¦¦"
      ],
      [
        "à¦°",
        "à¦¶"
      ],
      [
        "Ġà¦ħ",
        "à¦Ń"
      ],
      [
        "à¦®",
        "à¦²"
      ],
      [
        "Ġà¦ħ",
        "à¦°"
      ],
      [
        "à¦¹",
        "à¦®"
      ],
      [
        "Ġà¦Ĩà¦²",
        "à¦ķ"
      ],
      [
        "Ġà¦ı",
        "à¦®à¦¨"
      ],
      [
        "à¦²",
        "à¦¯"
      ],
      [
        "Ġà¦Ĩ",
        "à¦¨"
      ],
      [
        "Ġà¦Ĩ",
        "à¦ªà¦¨"
      ],
      [
        "Ġà¦®",
        "à¦§"
      ],
      [
        "Ġà¦ħ",
        "à¦¸"
      ],
      [
        "à¦°",
        "à¦¸"
      ],
      [
        "à¦ĸ",
        "à¦²"
      ],
      [
        "à¦ĩ",
        "à¦¨"
      ],
      [
        "Ġà¦¦",
        "à¦²"
      ],
      [
        "Ġà¦Ĩ",
        "à¦ľ"
      ],
      [
        "à¦¿",
        "à¦Ĥ"
      ],
      [
        "Ġà¦¸",
        "à¦°"
      ],
      [
        "à¦²",
        "à¦¨"
      ],
      [
        "à¦Ľ",
        "à¦°"
      ],
      [
        "Ġà¦",
        "Ŀ"
      ],
      [
        "à¦ķ",
        "à¦¤"
      ],
      [
        "à¦¼",
        "à§ĭ"
      ],
      [
        "Ġà¦ī",
        "à¦¦"
      ],
      [
        "à¦¯",
        "à¦®"
      ],
      [
        "Ġà¦ĺ",
        "à¦Ł"
      ],
      [
        "à¦¯",
        "à¦ķ"
      ],
      [
        "Ġà¦ī",
        "à¦ł"
      ],
      [
        "Ġà¦ħ",
        "à¦ª"
      ],
      [
        "Ġà¦",
        "ł"
      ],
      [
        "Ġà¦¸",
        "à¦°à¦ķ"
      ],
      [
        "à¦¤",
        "à¦¬"
      ],
      [
        "à¦°",
        "à¦¯"
      ],
      [
        "à¦°",
        "à¦§"
      ],
      [
        "à¦°",
        "à¦¹"
      ],
      [
        "à¦°",
        "à¦¥"
      ],
      [
        "Ġà¦¬",
        "à¦ĩ"
      ],
      [
        "à¦¸",
        "à¦²"
      ],
      [
        "Ġà¦ķ",
        "à¦®"
      ],
      [
        "à§ģ",
        "à¦ģ"
      ],
      [
        "à¦¦",
        "à¦¨"
      ],
      [
        "à¦¸",
        "à¦¬"
      ],
      [
        "à¦¤",
        "à¦ķ"
      ],
      [
        "Ġà¦ıà¦ķ",
        "à¦ľà¦¨"
      ],
      [
        "à¦¯",
        "à¦¨"
      ],
      [
        "Ġà¦Ĩ",
        "à¦ĵà¦¯"
      ],
      [
        "à¦ĸ",
        "à¦¤"
      ],
      [
        "à§ĩ",
        "-"
      ],
      [
        "Ġà¦¬à¦²",
        "à¦²"
      ],
      [
        "Ġà¦¨",
        "à¦¯"
      ],
      [
        "Ġà§¨",
        "à§¦à§"
      ],
      [
        "Ġà¦¤",
        "à¦ĸà¦¨"
      ],
      [
        "Ġà¦Ĩà¦®",
        "à¦°"
      ],
      [
        "à¦²",
        "à¦¤"
      ],
      [
        "Ġà¦¬",
        "à¦°"
      ],
      [
        "Ġà¦¬",
        "à¦Ľà¦°"
      ],
      [
        "Ġà¦¤",
        "à¦¬"
      ],
      [
        "Ġà¦¬",
        "à¦¨"
      ],
      [
        "à¦¬",
        "à¦¬"
      ],
      [
        "à§ĩ",
        "?<"
      ],
      [
        "à¦°à¦¥",
        "à¦®"
      ],
      [
        "à¦Ĺ",
        "à¦¤"
      ],
      [
        "Ġà¦¹",
        "à¦ĵà¦¯"
      ],
      [
        "à¦·",
        "à¦¯"
      ],
      [
        "Ġà¦¸",
        "à¦¨"
      ],
      [
        "Ġà¦ı",
        "à¦¤"
      ],
      [
        "à¦¨",
        "à¦¨"
      ],
      [
        "à¦ĩ",
        "à¦²"
      ],
      [
        "à¦ļ",
        "à¦¯"
      ],
      [
        "à§",
        "ª"
      ],
      [
        "Ġà¦¸",
        "à¦¹"
      ],
      [
        "Ġà¦ķà¦°",
        "à¦¬"
      ],
      [
        "à¦®",
        "à¦ķ"
      ],
      [
        "!",
        "<"
      ],
      [
        "à¦",
        "ĭ"
      ],
      [
        "à¦°",
        "à¦²"
      ],
      [
        "à¦ª",
        "à¦ķ"
      ],
      [
        "Ġà¦ķ",
        "à¦ĸà¦¨"
      ],
      [
        "Ġà¦ħ",
        "à¦§"
      ],
      [
        "à¦¶",
        "à¦ķ"
      ],
      [
        "Ġà¦",
        "Ĳ"
      ],
      [
        "Ġà¦Ĩ",
        "à¦¶"
      ],
      [
        "Ġà¦ıà¦°",
        "à¦¶"
      ],
      [
        "à¦®",
        "à¦°"
      ],
      [
        "¯",
        "à§"
      ],
      [
        "Ġà¦¬",
        "à¦¡"
      ],
      [
        "à¦°",
        "à¦ĩ"
      ],
      [
        "Ġà¦ħà¦¬",
        "à¦¸"
      ],
      [
        "à¦²",
        "à¦Ĺ"
      ],
      [
        "Ġà¦ħ",
        "à¦¤"
      ],
      [
        "à¦·",
        "à¦®à¦¤"
      ],
      [
        "Ġà¦Ĩ",
        "à¦ķ"
      ],
      [
        "à¦ĭ",
        "à¦¤"
      ],
      [
        "à§İ",
        "à¦¸"
      ],
      [
        "à¦·",
        "à¦ķ"
      ],
      [
        "à¦ķ",
        "à¦¬"
      ],
      [
        "Ġà¦Ĩ",
        "à¦¦"
      ],
      [
        "Ġà¦¯",
        "à¦ĸà¦¨"
      ],
      [
        "à¦°",
        "à¦ĵ"
      ],
      [
        "à¦¨",
        "à¦ķ"
      ],
      [
        "à¦ª",
        "à¦¦"
      ],
      [
        "Ġà¦ı",
        "à¦²"
      ],
      [
        "à§ĩ",
        "à¦ģ"
      ],
      [
        "à¦¿",
        "-"
      ],
      [
        "Ġà§",
        "©"
      ],
      [
        "à¦¸",
        "à¦®"
      ],
      [
        "à¦ĩ",
        "à¦¯"
      ],
      [
        "Ġà¦Ĩà¦²",
        "à¦«"
      ],
      [
        "Ġà¦ķ",
        "à¦¯"
      ],
      [
        "à¦¯à¦¬",
        "à¦¸"
      ],
      [
        "Ġà¦Ĺ",
        "à¦²"
      ],
      [
        "à¦Ĺ",
        "à¦°"
      ],
      [
        "à¦¬",
        "à¦ª"
      ],
      [
        "à¦¸",
        "à¦¨"
      ],
      [
        "à¦ı",
        "à¦°"
      ],
      [
        "Ġà¦°",
        "à¦ķ"
      ],
      [
        "Ġà¦ª",
        "à¦¥"
      ],
      [
        "à§¦",
        "à§¦"
      ],
      [
        "Ġà¦ī",
        "à¦¤"
      ],
      [
        "Ġà¦ı",
        "à¦Ł"
      ],
      [
        "à¦°",
        "à¦ļ"
      ],
      [
        "à¦²",
        "à¦¬"
      ],
      [
        "Ġà¦¬à¦²",
        "à¦¤"
      ],
      [
        "à¦Ł",
        "à¦ķ"
      ],
      [
        "à§",
        "¨"
      ],
      [
        "à¦¬",
        "à¦¤"
      ],
      [
        "à¦¦",
        "à¦°"
      ],
      [
        "Ġà¦ī",
        "à¦²"
      ],
      [
        "Ġà¦ī",
        "à¦ļ"
      ],
      [
        "à¦¼",
        "à§Ģ"
      ],
      [
        "Ġà¦ķ",
        "à¦²"
      ],
      [
        "Ġà¦ĵ",
        "à¦°"
      ],
      [
        "à¦¨",
        "à¦Ł"
      ],
      [
        "Ġà¦®",
        "à¦¹"
      ],
      [
        "Ġà¦ĺ",
        "à¦°"
      ],
      [
        "Ġà¦ª",
        "à¦ķ"
      ],
      [
        "Ġà¦Ĺ",
        "à¦£"
      ],
      [
        "à¦",
        "ĥ"
      ],
      [
        "Ġà¦¸",
        "à¦¤"
      ],
      [
        "à¦Ľ",
        "à¦¨"
      ],
      [
        "à¦ĩ",
        "à¦°"
      ],
      [
        "Ġà§¨à§¦à§",
        "¨"
      ],
      [
        "à¦¹",
        "à¦¤"
      ],
      [
        "à¦ĸ",
        "à¦ķ"
      ],
      [
        "à¦¯",
        "à¦¤"
      ],
      [
        "Ġà¦¸",
        "à¦Ļ"
      ],
      [
        "à§ĩ",
        ";"
      ],
      [
        "Ġà¦ĵ",
        "à¦ªà¦°"
      ],
      [
        "à¦ĩ",
        "à¦ķ"
      ],
      [
        "Ġà¦Ĩ",
        "à¦¤"
      ],
      [
        "Ġà¦¨",
        "à¦¤"
      ],
      [
        "Ġà¦ĩ",
        "à¦¤"
      ],
      [
        "à§",
        "©"
      ],
      [
        "à¦°",
        "à¦ª"
      ],
      [
        "Ġà¦ĺà¦Ł",
        "à¦¨"
      ],
      [
        "à¦¯à¦¬",
        "à¦¹"
      ],
      [
        "à¦°",
        "à¦¨"
      ],
      [
        "Ġà¦°",
        "à¦¹à¦®"
      ],
      [
        "à¦¸",
        "à¦ª"
      ],
      [
        "à§ĭ",
        ","
      ],
      [
        "à§ĩ",
        "âĢĶ"
      ],
      [
        "à¦Ĺ",
        "à¦¨"
      ],
      [
        "à§",
        "§"
      ],
      [
        "à¦°",
        "à¦ľ"
      ],
      [
        "à¦®",
        "à¦¦"
      ],
      [
        "à§",
        "¬"
      ],
      [
        "à§",
        "Ń"
      ],
      [
        "Ġà¦ī",
        "à¦¨"
      ],
      [
        "Ġà¦¬",
        "à¦¯"
      ],
      [
        "à¦·",
        "à¦¤"
      ],
      [
        "à¦ī",
        "à¦¨"
      ],
      [
        "Ġà¦Ĩ",
        "à¦¯"
      ],
      [
        "Ġà¦ħà¦¬",
        "à¦¶"
      ],
      [
        "à¦®",
        "à¦¯"
      ],
      [
        "Ġà¦Ĩ",
        "à¦ĩà¦¨"
      ],
      [
        "Ġà¦ı",
        "à¦Ĺ"
      ],
      [
        "à¦¼à§ĩ",
        ","
      ],
      [
        "Ġà¦¯",
        "à¦¦"
      ],
      [
        "Ġà§§à§",
        "¯à§"
      ],
      [
        "à¦¬",
        "à¦¸"
      ],
      [
        "Ġà¦ħ",
        "à¦ªà¦°"
      ],
      [
        "Ġà¦Ĺ",
        "à¦¤"
      ],
      [
        "Ġà¦¶",
        "à¦¤"
      ],
      [
        "Ġà¦ķ",
        "à¦¤"
      ],
      [
        "Ġà¦ª",
        "à¦¦"
      ],
      [
        "Ġà¦ĩ",
        "à¦¨"
      ],
      [
        "Ġà¦ĩ",
        "à¦ļ"
      ],
      [
        "à§İ",
        "à¦ķ"
      ],
      [
        "Ġà¦ª",
        "à¦¤"
      ],
      [
        "à¦Ĺ",
        "à¦²"
      ],
      [
        "à¦¬",
        "à¦ķ"
      ],
      [
        "à§ĭ",
        "à¦ģ"
      ],
      [
        "Ġà¦¶",
        "à¦¬"
      ],
      [
        "Ġà¦Ĩ",
        "à¦¹à¦®"
      ],
      [
        "à¦¦",
        "à¦²"
      ],
      [
        "Ġà¦¨",
        "à¦¦"
      ],
      [
        "Ġà¦¶",
        "à¦°"
      ],
      [
        "Ġà¦¯",
        "à¦¤"
      ],
      [
        "à¦°",
        "à¦Ł"
      ],
      [
        "à¦¨",
        "à¦¬"
      ],
      [
        "à¦¾",
        "'"
      ],
      [
        "à¦¨",
        "à¦ª"
      ],
      [
        "à¦ļ",
        "à¦²"
      ],
      [
        "Ġà¦¸",
        "à¦Ń"
      ],
      [
        "à¦ĩ",
        "à¦«"
      ],
      [
        "Ġà¦¸",
        "à¦ķà¦²"
      ],
      [
        "Ġ",
        "-"
      ],
      [
        "Ġà¦ĩ",
        "à¦¸à¦²"
      ],
      [
        "à¦Ń",
        "à¦¬"
      ],
      [
        "à¦°",
        "à¦Ľ"
      ],
      [
        "à¦ķ",
        "à¦¦"
      ],
      [
        "Ġà¦ı",
        "à¦ĸ"
      ],
      [
        "à¦ľ",
        "à¦¯"
      ],
      [
        "à¦¹",
        "à¦¸"
      ],
      [
        "à¦¤",
        "à¦¤"
      ],
      [
        "Ġà¦Ľ",
        "à¦¬"
      ],
      [
        "Ġà¦ĩ",
        "à¦ĸà¦²"
      ],
      [
        "Ġà¦ıà¦ķ",
        "à¦ĩ"
      ],
      [
        "Ġà¦ī",
        "à¦ªà¦°"
      ],
      [
        "Ġà¦¬",
        "à¦ķ"
      ],
      [
        "Ġà¦ļ",
        "à¦°"
      ],
      [
        "à¦®",
        "à¦¬"
      ],
      [
        "Ġà¦«",
        "à¦²"
      ],
      [
        "à§Ģ",
        ","
      ],
      [
        "à§",
        "«"
      ],
      [
        "à¦Ł",
        "à¦¨"
      ],
      [
        "à¦°",
        "à¦Ń"
      ],
      [
        "à¦¸",
        "à¦°"
      ],
      [
        "Ġà¦ı",
        "à¦¦"
      ],
      [
        "Ġà§",
        "®"
      ],
      [
        "Ġà¦īà¦ª",
        "à¦¸"
      ],
      [
        "Ġà¦Ĩ",
        "à¦ª"
      ],
      [
        "à¦ļ",
        "à¦ķ"
      ],
      [
        "Ġà¦ıà¦ķ",
        "à¦¬"
      ],
      [
        "Ġà¦¬",
        "à¦¹"
      ],
      [
        "Ġà¦¶",
        "à¦ķ"
      ],
      [
        "Ġà¦¸",
        "à¦ķ"
      ],
      [
        "à¦¸",
        "à¦¦"
      ],
      [
        "Ġà¦Ĺ",
        "à¦°"
      ],
      [
        "Ġà¦Ĩà¦¸",
        "à¦²"
      ],
      [
        "Ġà¦Ĩà¦¸",
        "à¦Ľ"
      ],
      [
        "à¦¸",
        "à¦ķ"
      ],
      [
        "à¦Ŀ",
        "à¦¤"
      ],
      [
        "à¦",
        "ħ"
      ],
      [
        "Ġà¦¸",
        "à¦¦"
      ],
      [
        "à¦§",
        "à¦¬"
      ],
      [
        "Ġà¦Ń",
        "à¦¯"
      ],
      [
        "à¦¨",
        "à¦Ń"
      ],
      [
        "à¦¤",
        "à¦®"
      ],
      [
        "à¦¸",
        "à¦¹"
      ],
      [
        "Ġà¦¶",
        "à¦¹"
      ],
      [
        "Ġà¦°",
        "à¦¯"
      ],
      [
        "à¦¨",
        "à¦¦"
      ],
      [
        "à¦¹",
        "à¦«"
      ],
      [
        "Ġà¦ĵ",
        "à¦ł"
      ],
      [
        "à¦ľ",
        "à¦°"
      ],
      [
        "Ġà¦ıà¦¸",
        "à¦¬"
      ],
      [
        "à¦ķ",
        "à¦ľà¦¨"
      ],
      [
        "Ġà¦¤",
        "à¦¥"
      ],
      [
        "Ġà¦¬à¦²",
        "à¦Ľ"
      ],
      [
        "Ġà¦ķ",
        "à¦£"
      ],
      [
        "à¦ı",
        "à¦¨à¦ª"
      ],
      [
        "à¦¨",
        "à¦°"
      ],
      [
        "à¦Ĺ",
        "à¦®"
      ],
      [
        "Ġà¦ħ",
        "à¦¥"
      ],
      [
        "Ġà§¨à§¦à§¨",
        "à§ª"
      ],
      [
        "Ġà¦ª",
        "à¦²"
      ],
      [
        ")",
        ","
      ],
      [
        "à¦§",
        "à¦¨"
      ],
      [
        "à¦ī",
        "à¦ķ"
      ],
      [
        "Ġà¦ĵ",
        "à¦¬"
      ],
      [
        "à¦¨",
        "à¦¯"
      ],
      [
        "Ġà¦Ń",
        "à¦°"
      ],
      [
        "Ġà¦Ĩà¦¸",
        "à¦¤"
      ],
      [
        "à¦¾",
        "?<"
      ],
      [
        "Ġà¦ľ",
        "à¦¸"
      ],
      [
        "à¦°à¦¹",
        "à¦£"
      ],
      [
        "Ġà¦¤",
        "à¦°"
      ],
      [
        "Ġà¦ľ",
        "à¦®"
      ],
      [
        "à¦ķ",
        "à¦Ń"
      ],
      [
        "Ġà¦®",
        "à¦°"
      ],
      [
        "Ġà§¨à§¦à§",
        "§à§"
      ],
      [
        "Ġà¦ľ",
        "à¦¡"
      ],
      [
        "à¦ĩ",
        "à¦¡"
      ],
      [
        "Ġà¦²",
        "à¦ķ"
      ],
      [
        "Ġà§",
        "§"
      ],
      [
        "à¦¾",
        ";"
      ],
      [
        "Ġ",
        ":"
      ],
      [
        "à¦¨",
        "à¦ľ"
      ],
      [
        "à¦¬",
        "à¦¦"
      ],
      [
        "Ġà¦¹",
        "à¦ł"
      ],
      [
        "Ġà¦ľ",
        "à¦²"
      ],
      [
        "Ġà¦ı",
        "à¦¨"
      ],
      [
        "Ġà¦¤",
        "à¦¤"
      ],
      [
        "à¦ı",
        "à¦¸"
      ],
      [
        "à¦¨",
        "à¦Ĺà¦°"
      ],
      [
        "à¦®",
        "à¦¸"
      ],
      [
        "à¦ĩ",
        "à¦¬"
      ],
      [
        "à¦¥",
        "à¦¨"
      ],
      [
        "à§Ģ",
        "-"
      ],
      [
        "à¦ķ",
        "à¦¨"
      ],
      [
        "à¦²",
        "à¦²"
      ],
      [
        "Ġà¦¦",
        "à¦°à¦ľ"
      ],
      [
        "Ġà¦Ĺ",
        "à¦¡"
      ],
      [
        "à§",
        "®"
      ],
      [
        "à¦ī",
        "à¦°"
      ],
      [
        "à§ģ",
        "-"
      ],
      [
        "à¦ł",
        "à¦ķ"
      ],
      [
        "à¦¨",
        "à¦®à¦¨"
      ],
      [
        "à¦¯",
        "à¦ĩ"
      ],
      [
        "Ġà§",
        "ª"
      ],
      [
        "Ġà¦ĩ",
        "à¦¥"
      ],
      [
        "à¦¯",
        "à¦¸"
      ],
      [
        "Ġà§",
        "«"
      ],
      [
        "à¦°",
        "à¦«"
      ],
      [
        "à¦¿",
        "?<"
      ],
      [
        "à¦¯",
        "à¦°"
      ],
      [
        "à¦§",
        "à¦ķ"
      ],
      [
        "à¦«",
        "à¦²"
      ],
      [
        "à§Į",
        "à¦ģ"
      ],
      [
        "à¦°",
        "à¦ªà¦¤"
      ],
      [
        "Ġà¦¹",
        "à¦ķ"
      ],
      [
        "à¦Ł",
        "à¦²"
      ],
      [
        "à¦ĵ",
        "à¦¦"
      ],
      [
        "à¦¬",
        "à¦§"
      ],
      [
        "Ġà¦¸",
        "à¦ļ"
      ],
      [
        "Ġà¦¦",
        "à¦¶"
      ],
      [
        "à¦·",
        "à¦®"
      ],
      [
        "Ġà¦ħ",
        "à¦Ĺ"
      ],
      [
        "à¦¼à¦¾",
        ","
      ],
      [
        "Ġà¦¯",
        "à¦¥"
      ],
      [
        "Ġà¦ī",
        "à§İà¦¸"
      ],
      [
        "à¦",
        "¢"
      ],
      [
        "Ġà¦ĸ",
        "à¦¬à¦°"
      ],
      [
        "à¦®",
        "à¦ķà¦°"
      ],
      [
        "Ġà¦Ĩ",
        "à¦§"
      ],
      [
        "à§¦à§¦",
        "à§¦"
      ],
      [
        "à¦¹",
        "à¦²"
      ],
      [
        "Ġà¦ĵ",
        "à¦ĩ"
      ],
      [
        "Ġà¦¨",
        "à¦ĵà¦¦"
      ],
      [
        "à¦¾",
        "âĢĶ"
      ],
      [
        "à¦¶",
        "à¦¬"
      ],
      [
        "à¦·",
        "à¦¦"
      ],
      [
        "à¦¹",
        "à¦¬"
      ],
      [
        "à¦ł",
        "à¦¨"
      ],
      [
        "à¦°",
        "à¦ľà¦¨"
      ],
      [
        "à¦¿",
        "à¦ĥ"
      ],
      [
        "à¦²",
        "à¦Ł"
      ],
      [
        "Ġà¦ĩ",
        "à¦īà¦¨"
      ],
      [
        "Ġà¦Ĩà¦¸",
        "à¦¬"
      ],
      [
        "Ġà¦¸à¦¦",
        "à¦¸"
      ],
      [
        "Ġà¦Ľ",
        "à¦¡"
      ],
      [
        "Ġà¦ķà¦ĸà¦¨",
        "à¦ĵ"
      ],
      [
        "à¦ĩ",
        "à¦Ł"
      ],
      [
        "à§ĭ",
        "-"
      ],
      [
        "Ġà¦§à¦°",
        "à¦¨"
      ],
      [
        "Ġà¦ħà¦¥",
        "à¦ļ"
      ],
      [
        "à¦¨",
        "à¦¸"
      ],
      [
        "Ġà¦īà¦ł",
        "à¦²"
      ],
      [
        "Ġà§®",
        "à§Ń"
      ],
      [
        "à¦¿",
        "âĢĶ"
      ],
      [
        "Ġà§©",
        "à§¬"
      ],
      [
        "Ġà¦ħ",
        "à¦¦"
      ],
      [
        "Ġà¦Ĩà¦¹à¦®",
        "à¦¦"
      ],
      [
        "à¦¤",
        "à¦²"
      ],
      [
        "à¦¼",
        "à§ģ"
      ],
      [
        "Ġà¦ħ",
        "à¦ķ"
      ],
      [
        "Ġà§¨",
        "à§¦"
      ],
      [
        "à¦¸à¦²",
        "à¦®"
      ],
      [
        "Ġà¦°à¦ķ",
        "à¦®"
      ],
      [
        "Ġà¦Ĺà¦£",
        "à¦®"
      ],
      [
        "à¦°",
        "à¦Ĺ"
      ],
      [
        "à§ĭ",
        "."
      ],
      [
        "à¦ĸ",
        "à¦¬"
      ],
      [
        "Ġà¦¸à¦®",
        "à¦¸"
      ],
      [
        "Ġà¦¦",
        "à¦°à¦ķ"
      ],
      [
        "Ġà¦¦",
        "à¦¶à¦ķ"
      ],
      [
        "Ġà¦ıà¦ķ",
        "à¦¦"
      ],
      [
        "Ġà¦¸à¦¬",
        "à¦ļ"
      ],
      [
        "à§§",
        "à§¦à§¦à§¦"
      ],
      [
        "à§ĩ",
        "'"
      ],
      [
        "à¦ķ",
        "à¦ķ"
      ],
      [
        "à§ģ",
        ","
      ],
      [
        "Ġà¦ļà¦²",
        "à¦Ľ"
      ],
      [
        "Ġà¦¬à¦ĩ",
        "à¦¯"
      ],
      [
        ".",
        "."
      ],
      [
        "à¦°",
        "à¦ªà¦°"
      ],
      [
        "à¦¯",
        "à¦¦"
      ],
      [
        "Ġà¦¬",
        "à¦Ļ"
      ],
      [
        "Ġà¦ª",
        "à¦¦à¦ķ"
      ],
      [
        "Ġà¦¦",
        "à¦°"
      ],
      [
        "à¦ľ",
        "à¦¤"
      ],
      [
        "à¦¼",
        ";"
      ],
      [
        "à¦®",
        "à¦ļ"
      ],
      [
        "à¦¶",
        "à¦Ł"
      ],
      [
        "à¦ĸ",
        "à¦Ľ"
      ],
      [
        "Ġà¦Ĩà¦¬",
        "à¦¦"
      ],
      [
        "Ġà¦Ĩ",
        "à¦¡"
      ],
      [
        "à¦ĵ",
        "à¦¤"
      ],
      [
        "Ġà¦Ĺ",
        "à¦¬"
      ],
      [
        "Ġà¦¸à¦¹",
        "à¦ľ"
      ],
      [
        "Ġà¦¨",
        "à¦¬"
      ],
      [
        "Ġà¦¨",
        "à¦ľà¦°"
      ],
      [
        "Ġà§",
        "¬"
      ],
      [
        "Ġà¦Ń",
        "à¦¬à¦¨"
      ],
      [
        "à¦ľ",
        "à¦Ł"
      ],
      [
        "Ġà¦ħ",
        "à¦«"
      ],
      [
        "Ġà¦ī",
        "à§İ"
      ],
      [
        "Ġà¦Ĩà¦°",
        "à¦ĵ"
      ],
      [
        "à¦Ĩ",
        "à¦ĩ"
      ],
      [
        "à¦¤",
        "à¦Ń"
      ],
      [
        "à¦®",
        "à¦ª"
      ],
      [
        "Ġà¦ı",
        "à¦Ń"
      ],
      [
        "à¦§",
        "à¦¤"
      ],
      [
        "à¦°à¦¹",
        "à¦°"
      ],
      [
        "Ġà¦Ĩà¦¸",
        "à¦¨"
      ],
      [
        "à¦®",
        "à¦§"
      ],
      [
        "Ġà¦®",
        "à¦ľ"
      ],
      [
        "à¦ľ",
        "à¦®"
      ],
      [
        "à¦¨",
        "à¦²"
      ],
      [
        "à¦Ł",
        "à¦¤"
      ],
      [
        "Ġà¦¦",
        "à¦ĸà¦²"
      ],
      [
        "à¦·",
        "à¦°"
      ],
      [
        "Ġà¦ħ",
        "à¦Ļ"
      ],
      [
        "Ġà¦ļà¦²",
        "à¦¤"
      ],
      [
        "à¦ķ",
        "à¦®"
      ],
      [
        "à¦¼",
        "âĢĶ"
      ],
      [
        "Ġà¦ħ",
        "à¦²"
      ],
      [
        "à¦ı",
        "à¦®"
      ],
      [
        "Ġà¦ļà¦²",
        "à¦ļ"
      ],
      [
        "à¦Ĩ",
        "à¦¯"
      ],
      [
        "à¦¼",
        "-"
      ],
      [
        "à¦ª",
        "à¦·"
      ],
      [
        "à¦ª",
        "à¦¡"
      ],
      [
        "Ġà¦Ĺ",
        "à¦Ń"
      ],
      [
        "Ġà¦ĺ",
        "à¦¨"
      ],
      [
        "Ġà¦¶à¦¹",
        "à¦°"
      ],
      [
        "Ġà¦ħ",
        "à¦¶"
      ],
      [
        "Ġà¦ľ",
        "à¦¯"
      ],
      [
        "Ġà¦ªà¦°",
        "à¦¬à¦°"
      ],
      [
        "Ġà¦ıà¦°",
        "à¦ªà¦°"
      ],
      [
        "à¦¿",
        "à¦ģ"
      ],
      [
        "Ġà¦¸",
        "à¦ŀ"
      ],
      [
        "à¦Ł",
        "à¦°"
      ],
      [
        "Ġà¦¹",
        "à¦¨"
      ],
      [
        "à¦ĩ",
        "à¦¤"
      ],
      [
        "Ġà¦¬à¦²",
        "à¦¬"
      ],
      [
        "Ġà¦Ĩà¦®",
        "à¦²"
      ],
      [
        "Ġà¦ķà¦¤",
        "à¦Ł"
      ],
      [
        "à¦¯",
        "à¦¯"
      ],
      [
        "à¦ķ",
        "à¦¶"
      ],
      [
        "à§ĭ",
        "?<"
      ],
      [
        "Ġà¦®",
        "à¦Ļ"
      ],
      [
        "à¦¶",
        "à¦Ĺ"
      ],
      [
        "Ġà¦ľ",
        "à¦°"
      ],
      [
        "Ġà¦ľ",
        "à¦¬"
      ],
      [
        "à¦£",
        "à¦¤"
      ],
      [
        "à¦ī",
        "à¦Ł"
      ],
      [
        "Ġà§¨à§¦",
        "à§¦à§"
      ],
      [
        "à¦ľà¦¨",
        "à¦ķ"
      ],
      [
        "Ġà¦ĩ",
        "à¦¶"
      ],
      [
        "Ġà¦ıà¦ĸà¦¨",
        "à¦ĵ"
      ],
      [
        "à¦¿",
        "'"
      ],
      [
        "Ġà¦¦",
        "à¦ķ"
      ],
      [
        "à¦Ĺ",
        "à¦Ľ"
      ],
      [
        "à¦Ļ",
        "à¦¨"
      ],
      [
        "Ġà¦¸à¦¬",
        "à¦ķ"
      ],
      [
        "à§",
        "§à§"
      ],
      [
        "à¦¬",
        "à¦¶"
      ],
      [
        "à¦ĩ",
        "à¦Ľ"
      ],
      [
        "à¦ª",
        "à¦Ł"
      ],
      [
        "à¦Ĺ",
        "à¦£"
      ],
      [
        "à¦«",
        "à¦ķ"
      ],
      [
        "à¦¼",
        "?<"
      ],
      [
        "Ġà¦¬",
        "à¦¦à¦²"
      ],
      [
        "à¦¹",
        "à¦¯"
      ],
      [
        "Ġà¦ķ",
        "à¦·"
      ],
      [
        "Ġà§",
        "Ń"
      ],
      [
        "à¦ī",
        "à¦²"
      ],
      [
        "à¦¬",
        "à¦¯"
      ],
      [
        "à¦¦",
        "à¦®"
      ],
      [
        "à¦Ĺ",
        "à¦¬"
      ],
      [
        "à¦¿",
        ";"
      ],
      [
        "Ġà¦®",
        "à¦¸"
      ],
      [
        "Ġà¦¡",
        "à¦²"
      ],
      [
        "Ġà¦ıà¦®à¦¨",
        "à¦ķ"
      ],
      [
        "Ġà¦Ĩ",
        "à¦Łà¦ķ"
      ],
      [
        "Ġà§",
        "¦"
      ],
      [
        "à¦°à¦ķ",
        "à¦²"
      ],
      [
        "à¦¯",
        "à¦Ł"
      ],
      [
        "à¦²",
        "à¦Ľ"
      ],
      [
        "à¦¦",
        "à¦ª"
      ],
      [
        "à¦¦",
        "à¦¶"
      ],
      [
        "Ġà¦Ĩ",
        "à¦¹"
      ],
      [
        "à¦¹",
        "à¦°"
      ],
      [
        "à§",
        "¯"
      ],
      [
        "Ġà¦®",
        "à¦ŀ"
      ],
      [
        "Ġà¦ħ",
        "à¦ľ"
      ],
      [
        "Ġà¦«",
        "à¦°"
      ],
      [
        "Ġà¦ĺ",
        "à¦£"
      ],
      [
        "Ġà§§à§",
        "¨"
      ],
      [
        "Ġà¦Ĩ",
        "à¦ĩ"
      ],
      [
        "Ġà§§à§¯à§",
        "®"
      ],
      [
        "à¦¨",
        "à¦ĩ"
      ],
      [
        "Ġà¦¸",
        "à¦ª"
      ],
      [
        "Ġà¦ľ",
        "à¦Ĺà¦¤"
      ],
      [
        "à¦«",
        "à¦°"
      ],
      [
        "Ġà¦",
        "·"
      ],
      [
        "à¦ķ",
        "à¦¸"
      ],
      [
        "à¦²",
        "à¦®"
      ],
      [
        "à¦¶",
        "à¦²"
      ],
      [
        "à¦ľ",
        "à¦²"
      ],
      [
        "à¦°à¦¦",
        "à¦°"
      ],
      [
        "à¦°",
        "à¦Ĺà¦¤"
      ],
      [
        "à¦¨",
        "à¦ĵ"
      ],
      [
        "Ġà¦¹",
        "à¦°"
      ],
      [
        "Ġà¦ıà¦ķ",
        "à¦®"
      ],
      [
        "à¦ī",
        "à¦¦"
      ],
      [
        "Ġà¦ķ",
        "à¦ª"
      ],
      [
        "à¦¦",
        "à¦Ł"
      ],
      [
        "Ġà¦Ĩ",
        "à¦ļ"
      ],
      [
        "Ġà¦ı",
        "à¦®"
      ],
      [
        "à¦¶",
        "à¦¤"
      ],
      [
        "Ġà¦¤",
        "à§İà¦ķ"
      ],
      [
        "à¦ļ",
        "à¦°"
      ],
      [
        "à¦¯",
        "à¦¥"
      ],
      [
        "à¦Ĺ",
        "à¦łà¦¨"
      ],
      [
        "à¦°",
        "à¦°"
      ],
      [
        "à¦¿",
        ")"
      ],
      [
        "à¦ľ",
        "à¦ķ"
      ],
      [
        "à¦Ĺ",
        "à¦¬à¦¨"
      ],
      [
        "Ġà¦°",
        "à¦Ļ"
      ],
      [
        "à¦¯à¦¤",
        "à¦®"
      ],
      [
        "Ġà¦Ĩ",
        "à¦Ł"
      ],
      [
        "Ġà¦ı",
        "à¦Ľ"
      ],
      [
        "à¦¹",
        "à¦ķ"
      ],
      [
        "Ġà¦Ń",
        "à¦¬"
      ],
      [
        "Ġà¦§",
        "à¦¨"
      ],
      [
        "à¦°à¦®",
        "à¦£"
      ],
      [
        "à¦ĺ",
        "à¦°"
      ],
      [
        "Ġà¦Ĩà¦ľ",
        "à¦ķ"
      ],
      [
        "à¦¤",
        "à¦¦"
      ],
      [
        "à¦Ĺ",
        "à¦²à¦¬"
      ],
      [
        "Ġà¦ħ",
        "à¦®"
      ],
      [
        "Ġà¦ıà¦¤",
        "à¦Ł"
      ],
      [
        "Ġà¦ķ",
        "à¦ł"
      ],
      [
        "Ġà¦ĩ",
        "à¦¯"
      ],
      [
        "Ġà¦ĩ",
        "à¦²"
      ],
      [
        "Ġà§©",
        "à§¦"
      ],
      [
        "à¦¨",
        "à¦®"
      ],
      [
        "Ġà¦ķ",
        "à¦ķ"
      ],
      [
        "Ġà¦ľà¦¨",
        "à¦ª"
      ],
      [
        "à¦Ĩ",
        "à¦®"
      ],
      [
        "Ġà¦Ĩà¦¨",
        "à¦¨"
      ],
      [
        "à¦²",
        "à¦ª"
      ],
      [
        "à¦¬",
        "à¦¹"
      ],
      [
        "à¦®",
        "à¦Ĺ"
      ],
      [
        "à¦ª",
        "à¦¸"
      ],
      [
        "Ġà¦Ľ",
        "à¦¯"
      ],
      [
        "Ġà¦īà¦ª",
        "à¦ķ"
      ],
      [
        "Ġà¦ķ",
        "à¦¨"
      ],
      [
        "à¦®",
        "à¦¹"
      ],
      [
        "à¦¸",
        "à¦Ļ"
      ],
      [
        "Ġà¦Ŀ",
        "à¦¡"
      ],
      [
        "Ġà¦īà¦ł",
        "à¦¤"
      ],
      [
        "à¦¤",
        "à¦¶"
      ],
      [
        "à¦¸",
        "à¦Ń"
      ],
      [
        "à¦§",
        "à¦¹à¦¯"
      ],
      [
        "Ġà¦ī",
        "à¦¡"
      ],
      [
        "Ġà¦¦à¦²",
        "à¦Ł"
      ],
      [
        "à¦¾",
        "!<"
      ],
      [
        "à§ĭ",
        "âĢĶ"
      ],
      [
        "Ġà¦ª",
        "à¦¶"
      ],
      [
        "Ġà§§à§",
        "§"
      ],
      [
        "à¦¯",
        "à¦ķà¦°"
      ],
      [
        "à¦ķ",
        "à¦¥"
      ],
      [
        "à¦Ł",
        "à¦Ĺ"
      ],
      [
        "à¦ª",
        "à¦¥"
      ],
      [
        "Ġà¦°",
        "à¦ĵ"
      ],
      [
        "à¦ŀ",
        "à¦¤"
      ],
      [
        "Ġà¦īà¦ª",
        "à¦ľ"
      ],
      [
        "Ġà§§à§",
        "®"
      ],
      [
        "à¦®",
        "à¦Ł"
      ],
      [
        "à¦¸",
        "à¦Ł"
      ],
      [
        "Ġà¦ı",
        "à¦¡"
      ],
      [
        "Ġà¦ı",
        "à¦ľà¦¨"
      ],
      [
        "Ġà§§",
        "à§¦"
      ],
      [
        "à¦¨",
        "à¦Ĺ"
      ],
      [
        "Ġà¦¤",
        "à¦¦à¦¨"
      ],
      [
        "Ġà¦ħà¦¸",
        "à¦®"
      ],
      [
        "à¦ķ",
        "à¦ĩ"
      ],
      [
        "à¦¦",
        "à¦¤"
      ],
      [
        "Ġà¦ļ",
        "à¦ķ"
      ],
      [
        "Ġà¦¸à¦¹",
        "à¦¯"
      ],
      [
        "Ġà¦",
        "ĭ"
      ],
      [
        "à§ģ",
        "à¦ĥ"
      ],
      [
        "à¦¸",
        "à¦¤"
      ],
      [
        "Ġà¦Ĩ",
        "à¦«"
      ],
      [
        "à¦ľ",
        "à¦¬"
      ],
      [
        "Ġà¦Ń",
        "à¦Ļ"
      ],
      [
        "Ġà¦ªà¦°",
        "à¦ĵ"
      ],
      [
        "à¦°à¦ķ",
        "à¦®"
      ],
      [
        "Ġà¦¤à¦ĸà¦¨",
        "à¦ĩ"
      ],
      [
        "à¦²",
        "à¦¦"
      ],
      [
        "à¦¦",
        "à¦¯"
      ],
      [
        "Ġà¦¨",
        "à¦¨"
      ],
      [
        "Ġà¦¸à¦®",
        "à¦°"
      ],
      [
        "Ġà¦īà¦ª",
        "à¦¹"
      ],
      [
        "à¦¨",
        "à¦¶à¦¨"
      ],
      [
        "à¦¯",
        "à¦ª"
      ],
      [
        "à¦¤",
        "à¦ĩ"
      ],
      [
        "à¦®",
        "à¦ľ"
      ],
      [
        "Ġà¦¤",
        "à¦²"
      ],
      [
        "à¦Ĺ",
        "à¦¡"
      ],
      [
        "Ġà¦ļ",
        "à¦®à¦ķ"
      ],
      [
        "Ġà¦ıà¦¸",
        "à¦®à¦¯"
      ],
      [
        "à¦¤à¦¬",
        "à¦¤"
      ],
      [
        "à¦¶",
        "à¦¯"
      ],
      [
        "à¦ļ",
        "à¦¤"
      ],
      [
        "Ġà¦ļ",
        "à¦Ł"
      ],
      [
        "Ġà¦ĵ",
        "à¦¦"
      ],
      [
        "Ġà¦²",
        "à¦¡"
      ],
      [
        "à¦ĺ",
        "à¦¨"
      ],
      [
        "Ġà¦",
        "Ĭ"
      ],
      [
        "à¦ķ",
        "à¦¡"
      ],
      [
        "à¦¦",
        "à¦ªà¦¤"
      ],
      [
        "Ġà¦¨",
        "à¦ľ"
      ],
      [
        "à¦Ĺ",
        "à¦ľ"
      ],
      [
        "à¦Ŀ",
        "à¦ĸ"
      ],
      [
        "à¦Ŀ",
        "à¦¡"
      ],
      [
        "Ġà§§à§¯à§",
        "¯à§"
      ],
      [
        "Ġà¦°à¦ĵ",
        "à¦¶à¦¨"
      ],
      [
        "à¦°",
        "à¦ĸ"
      ],
      [
        "à¦¬",
        "à¦ľà¦¨"
      ],
      [
        "à¦Ł",
        "à¦¬à¦²"
      ],
      [
        "à¦ª",
        "à¦£"
      ],
      [
        "Ġà¦ļ",
        "à¦¤"
      ],
      [
        "à¦¤à¦°",
        "à¦¦"
      ],
      [
        "Ġà¦ħà¦¬à¦¸",
        "à¦°"
      ],
      [
        "à¦ķ",
        "à¦Ľ"
      ],
      [
        "Ġà¦ķ",
        "à¦Ł"
      ],
      [
        "à¦Ł",
        "à¦Ľ"
      ],
      [
        "à¦§",
        "à¦°"
      ],
      [
        "Ġà¦ĵ",
        "à¦ķ"
      ],
      [
        "Ġà¦Ĩà¦°",
        "à¦²"
      ],
      [
        "Ġà¦Ĩà¦²",
        "à¦®"
      ],
      [
        "Ġà¦¸à¦¹",
        "à¦ķ"
      ],
      [
        "à¦ıà¦¸",
        "à¦¸"
      ],
      [
        "Ġà¦īà§İ",
        "à¦ª"
      ],
      [
        "à¦¾",
        ")"
      ],
      [
        "à¦²",
        "à¦Ń"
      ],
      [
        "Ġà¦Ĩ",
        "à¦Ļ"
      ],
      [
        "à¦ĩ",
        "à¦¸"
      ],
      [
        "Ġà¦ı",
        "à¦¤à¦ķ"
      ],
      [
        "à¦ļ",
        "à¦Ł"
      ],
      [
        "à¦¥",
        "à¦ķ"
      ],
      [
        "à¦¥",
        "à¦Ĺ"
      ],
      [
        "Ġà¦¬à¦¸",
        "à¦¤"
      ],
      [
        "à¦¸à¦®",
        "à¦¯"
      ],
      [
        "Ġà¦ĭ",
        "à¦£"
      ],
      [
        "Ġà¦ª",
        "à¦ŀ"
      ],
      [
        "à¦ĩ",
        "à¦®"
      ],
      [
        "à¦·",
        "à¦Ł"
      ],
      [
        "Ġà¦°",
        "à¦ļà¦¨"
      ],
      [
        "à¦Ń",
        "à¦ķ"
      ],
      [
        "Ġà¦ıà¦ĩ",
        "à¦ļ"
      ],
      [
        "Ġà¦ĩ",
        "à¦Ń"
      ],
      [
        "Ġà¦¬à¦¸",
        "à¦²"
      ],
      [
        "Ġà§§à§",
        "¯"
      ],
      [
        "Ġà¦Ŀ",
        "à¦°"
      ],
      [
        "Ġà¦ħà¦¥",
        "à¦¬"
      ],
      [
        "à¦¨",
        "à¦¶"
      ],
      [
        "Ġà¦¸",
        "à¦¤à¦°"
      ],
      [
        "à¦¦",
        "à¦£"
      ],
      [
        "Ġà¦¦",
        "à¦ª"
      ],
      [
        "Ġà¦ļ",
        "à¦¡"
      ],
      [
        "Ġà¦Ĩà¦Ĺ",
        "à¦¸"
      ],
      [
        "à¦Ĩ",
        "à¦°"
      ],
      [
        "à¦¤",
        "à¦Ł"
      ],
      [
        "Ġà¦¦",
        "à¦«"
      ],
      [
        "à¦ĵ",
        "à¦¨"
      ],
      [
        "Ġà¦°",
        "à¦ŀ"
      ],
      [
        "Ġà¦«",
        "à¦¡"
      ],
      [
        "Ġà¦ıà¦¤",
        "à¦¦"
      ],
      [
        "à¦¬",
        "à¦¡"
      ],
      [
        "à¦¬",
        "à¦¤à¦¨"
      ],
      [
        "Ġà¦ķ",
        "à¦ĩ"
      ],
      [
        "à¦ľ",
        "à¦¸"
      ],
      [
        "Ġà¦ħ",
        "à¦Ł"
      ],
      [
        "Ġà¦°",
        "à¦¹à¦¸"
      ],
      [
        "Ġà¦ıà¦ķ",
        "à¦¥"
      ],
      [
        "à§¨",
        "à§¦à§"
      ],
      [
        "Ġà¦¯à¦¤",
        "à¦Ł"
      ],
      [
        "..",
        "."
      ],
      [
        "Ġ",
        ","
      ],
      [
        "à¦¨",
        "à¦ľà¦¨"
      ],
      [
        "Ġà¦¦",
        "à¦®"
      ],
      [
        "Ġà¦ħ",
        "à¦ŀ"
      ],
      [
        "à¦ī",
        "à¦ľ"
      ],
      [
        "Ġà¦īà§İà¦¸",
        "à¦°"
      ],
      [
        "Ġà¦ķ",
        "à¦¸à¦¬"
      ],
      [
        "Ġà¦¬",
        "à¦¦"
      ],
      [
        "Ġà¦ª",
        "à¦Ľà¦¨"
      ],
      [
        "à¦ľ",
        "à¦¦"
      ],
      [
        "à¦¹",
        "à¦¨"
      ],
      [
        "à¦¹",
        "à¦¹"
      ],
      [
        "Ġà¦°",
        "à¦ª"
      ],
      [
        "Ġà¦ī",
        "à¦ªà¦¨"
      ],
      [
        "Ġà§",
        "¯"
      ],
      [
        "Ġà¦ħà¦¨",
        "à¦²"
      ],
      [
        "Ġà¦ĩ",
        "à¦®"
      ],
      [
        "Ġà¦ħà¦¬",
        "à¦¦"
      ],
      [
        "Ġà¦Ĺà¦£",
        "à¦¤à¦¨"
      ],
      [
        "à§ĩ",
        "!<"
      ],
      [
        "à¦ķ",
        "à¦¶à¦¨"
      ],
      [
        "Ġà¦ª",
        "à¦¯"
      ],
      [
        "Ġà¦ī",
        "à¦ĸ"
      ],
      [
        "à¦«",
        "à¦¤"
      ],
      [
        "Ġà¦ĸ",
        "à¦°à¦ļ"
      ],
      [
        "à¦¤à¦°",
        "à¦°"
      ],
      [
        "Ġà¦¬à¦ĩ",
        "à¦Ł"
      ],
      [
        "Ġà¦®à¦¸",
        "à¦ľ"
      ],
      [
        "Ġà§¦",
        "à§©"
      ],
      [
        "à¦¬",
        "à¦Ľ"
      ],
      [
        "Ġà¦¨",
        "à¦ķà¦²"
      ],
      [
        "Ġà¦ı",
        "à¦ľ"
      ],
      [
        "Ġà¦®",
        "à¦°à¦¦"
      ],
      [
        "à¦¶",
        "à¦ĩ"
      ],
      [
        "Ġà¦ĩ",
        "à¦īà¦°"
      ],
      [
        "à¦ī",
        "à¦¯"
      ],
      [
        "à¦¨à¦¤",
        "à¦®"
      ],
      [
        "Ġà¦ħà¦¬",
        "à¦§"
      ],
      [
        "Ġà¦īà¦ª",
        "à¦¦"
      ],
      [
        "Ġà¦ħà¦ª",
        "à¦¬"
      ],
      [
        "à¦ĭ",
        "à¦¤à¦ķ"
      ],
      [
        "Ġà§¨à§¦à§§à§",
        "ª"
      ],
      [
        "à¦²",
        "à¦°"
      ],
      [
        "à¦¬",
        "à¦ĩ"
      ],
      [
        "à¦¸",
        "à¦°à¦ķ"
      ],
      [
        "à¦ĩ",
        "à¦Ń"
      ],
      [
        "à¦¹",
        "à¦°à¦£"
      ],
      [
        "à¦Ń",
        "à¦¬à¦¤"
      ],
      [
        "Ġà¦ĵ",
        "à¦ª"
      ],
      [
        "Ġà¦ľà¦¨",
        "à¦Ĺà¦£"
      ],
      [
        "à¦¬à¦°",
        "à¦£"
      ],
      [
        "à¦ı",
        "à¦ĩ"
      ],
      [
        "Ġà§§à§",
        "«"
      ],
      [
        "Ġà§¨à§¦à§¨",
        "à§©"
      ],
      [
        "Ġà¦¦à¦¶",
        "à¦®"
      ],
      [
        "à¦®",
        "à¦£"
      ],
      [
        "à¦¦",
        "à¦¬"
      ],
      [
        "Ġà¦ª",
        "à¦²à¦ķ"
      ],
      [
        "Ġà¦Ĩ",
        "à¦ķà¦°"
      ],
      [
        "à¦ĩ",
        "à¦¦"
      ],
      [
        "à¦ĩ",
        "à¦ľ"
      ],
      [
        "à¦ª",
        "à¦¯"
      ],
      [
        "à¦Ĺ",
        "à¦ŀ"
      ],
      [
        "Ġà¦ī",
        "à¦Ĺ"
      ],
      [
        "Ġà¦²",
        "à¦®"
      ],
      [
        "Ġà¦ĩ",
        "à¦īà¦ķ"
      ],
      [
        "Ġà¦§à¦°",
        "à¦²"
      ],
      [
        "Ġà¦®à¦¤",
        "à¦ĩ"
      ],
      [
        "Ġà¦¯à¦¤",
        "à¦¦"
      ],
      [
        "Ġà¦",
        "Ī"
      ],
      [
        "à¦¬",
        "à¦Ľà¦°"
      ],
      [
        "Ġà¦¸",
        "à¦«à¦²"
      ],
      [
        "à¦¶",
        "à¦°"
      ],
      [
        "à¦¥",
        "à¦°"
      ],
      [
        "à¦Ń",
        "à¦°"
      ],
      [
        "Ġà¦ªà¦°",
        "à¦¦"
      ],
      [
        "Ġà¦¸à¦®",
        "à¦¨"
      ],
      [
        "Ġà¦ıà¦®à¦¨",
        "à¦Ł"
      ],
      [
        "Ġà¦¬à¦ĩ",
        "à¦®"
      ],
      [
        "Ġà¦Ĩà¦¶",
        "à¦Ļ"
      ],
      [
        "à¦°à¦ļ",
        "à¦£"
      ],
      [
        "à§¨",
        "à§¦"
      ],
      [
        "Ġà§¨à§¦à§§à§",
        "®"
      ],
      [
        "à¦¨",
        "à¦¹"
      ],
      [
        "à¦ķ",
        "à¦°à¦£"
      ],
      [
        "à¦²",
        "à¦¸"
      ],
      [
        "à¦¼",
        "'"
      ],
      [
        "Ġà¦ķ",
        "à¦²à¦ķ"
      ],
      [
        "à¦¦",
        "à¦¦"
      ],
      [
        "Ġà¦¨",
        "à¦·"
      ],
      [
        "à¦Ł",
        "à¦«"
      ],
      [
        "Ġà¦°",
        "à¦ĩà¦²"
      ],
      [
        "Ġà¦ªà¦°",
        "à¦ªà¦°"
      ],
      [
        "Ġà¦Ĩà¦®",
        "à¦¦"
      ],
      [
        "Ġà¦§",
        "à¦°à¦¤"
      ],
      [
        "Ġà¦Ĩà¦°",
        "à¦¬"
      ],
      [
        "Ġà¦ĩà¦¨",
        "à¦¸"
      ],
      [
        "Ġà¦¸",
        "à¦«"
      ],
      [
        "à¦¸",
        "à¦°à¦£"
      ],
      [
        "Ġà¦Ĩ",
        "à¦¹à¦¸"
      ],
      [
        "Ġà¦¨",
        "à¦¡"
      ],
      [
        "à¦Ł",
        "à¦¬"
      ],
      [
        "à¦ĸ",
        "à¦¯"
      ],
      [
        "à¦¥",
        "à¦²"
      ],
      [
        "Ġà¦Ĺ",
        "à¦®"
      ],
      [
        "Ġà¦°",
        "à¦¬"
      ],
      [
        "Ġà¦ıà¦ķ",
        "à¦¶"
      ],
      [
        "à¦ı",
        "à¦ķà¦Ł"
      ],
      [
        "à¦°à¦¸",
        "à¦Ļ"
      ],
      [
        "Ġà¦¸à¦¹",
        "à¦¸"
      ],
      [
        "Ġà§§à§¯à§",
        "Ń"
      ],
      [
        "Ġà¦ıà¦ĩà¦ļ",
        "à¦ıà¦¸à¦¸"
      ],
      [
        "à§ĩ",
        ")"
      ],
      [
        "à¦ķ",
        "à¦ļ"
      ],
      [
        "Ġà¦ķ",
        "à¦¬à¦°"
      ],
      [
        "à¦®",
        "à¦¡"
      ],
      [
        "à¦¸",
        "à¦ĵ"
      ],
      [
        "Ġà¦Ĩ",
        "à¦ĸ"
      ],
      [
        "Ġà¦Ĩ",
        "à¦ĩà¦¯"
      ],
      [
        "Ġà¦®",
        "à¦¡"
      ],
      [
        "à¦ľ",
        "à¦¶"
      ],
      [
        "à¦£",
        "à¦¨"
      ],
      [
        "Ġà¦ľà¦¨",
        "à¦¸"
      ],
      [
        "à¦ĺ",
        "à¦¦"
      ],
      [
        "Ġà¦ħà¦¸",
        "à¦¹"
      ],
      [
        "Ġà¦¦à¦²",
        "à¦Ĺ"
      ],
      [
        "Ġà¦Ĩà¦ĩà¦¨",
        "à¦ľ"
      ],
      [
        "'",
        ","
      ],
      [
        "à¦¯",
        "à¦ĵ"
      ],
      [
        "à¦¤",
        "à¦ľ"
      ],
      [
        "Ġà¦Ĩ",
        "à¦¹à¦¤"
      ],
      [
        "Ġà¦¨",
        "à¦ķà¦¶"
      ],
      [
        "Ġà¦ı",
        "à¦Ĩà¦ĩ"
      ],
      [
        "Ġà¦¤",
        "à¦°à¦¬"
      ],
      [
        "à¦Ĺ",
        "à¦ķ"
      ],
      [
        "à¦ĸ",
        "à¦°"
      ],
      [
        "à¦¼à¦¾",
        "-"
      ],
      [
        "Ġà¦ľ",
        "à¦Ĺà¦¨"
      ],
      [
        "Ġà¦Ĺ",
        "à¦łà¦¨"
      ],
      [
        "Ġà¦ĵ",
        "à¦Ń"
      ],
      [
        "Ġà¦ī",
        "à¦ľ"
      ],
      [
        "Ġà¦ļà¦²",
        "à¦¬"
      ],
      [
        "Ġà¦¬à¦¸",
        "à¦¬"
      ],
      [
        "Ġà§§à§",
        "©"
      ],
      [
        "Ġà§¨à§¦à§¨",
        "à§¨"
      ],
      [
        "Ġà¦īà§İ",
        "à¦¸à¦¬"
      ],
      [
        "à¦¤",
        "à¦ª"
      ],
      [
        "à¦¤",
        "à¦ĵ"
      ],
      [
        "à¦²",
        "à¦ľ"
      ],
      [
        "à¦²",
        "à¦«"
      ],
      [
        "à¦®",
        "à¦ĵ"
      ],
      [
        "Ġà¦¨",
        "à¦ķ"
      ],
      [
        "à¦Ł",
        "à¦ª"
      ],
      [
        "à¦Ľ",
        "à¦¤"
      ],
      [
        "Ġà¦ı",
        "à¦ª"
      ],
      [
        "à§Ģ",
        "'"
      ],
      [
        "à¦ľ",
        "à¦§"
      ],
      [
        "à¦¡",
        "à¦²"
      ],
      [
        "Ġà¦ļ",
        "à¦°à¦®"
      ],
      [
        "Ġà¦°",
        "à¦«"
      ],
      [
        "Ġà¦²",
        "à¦Ļ"
      ],
      [
        "Ġà¦ĩ",
        "à¦ī"
      ],
      [
        "à¦ı",
        "à¦«"
      ],
      [
        "à¦Ĩ",
        "à¦ª"
      ],
      [
        "à¦Ĩ",
        "à¦ªà¦¨"
      ],
      [
        "Ġà§§à§",
        "ª"
      ],
      [
        "Ġà¦īà¦ł",
        "à¦Ľ"
      ],
      [
        "à§İà¦¸",
        "à¦ķ"
      ],
      [
        "Ġà§§à§¯à§",
        "¬"
      ],
      [
        "à§§à§",
        "¯à§"
      ],
      [
        "Ġà¦",
        "Ķ"
      ],
      [
        "à¦°",
        "à¦°à¦«"
      ],
      [
        "à¦ķ",
        "à¦ĵ"
      ],
      [
        "à¦®",
        "à¦¶"
      ],
      [
        "à§ĭ",
        ";"
      ],
      [
        "à¦¸",
        "à¦«"
      ],
      [
        "Ġà¦Ĩ",
        "à¦ĺ"
      ],
      [
        "à¦ĩ",
        "à¦ī"
      ],
      [
        "Ġà¦¹",
        "à¦ľ"
      ],
      [
        "à¦ĸ",
        "à¦Ł"
      ],
      [
        "Ġà¦Ĺ",
        "à¦¤à¦ķ"
      ],
      [
        "Ġà¦ī",
        "à¦ķ"
      ],
      [
        "Ġà¦§",
        "à¦¸"
      ],
      [
        "Ġà¦Ĩà¦¸",
        "à¦°"
      ],
      [
        "Ġà¦ħà¦¬",
        "à¦ľ"
      ],
      [
        "à¦ı",
        "à¦¨"
      ],
      [
        "Ġà¦Ĩà¦¬",
        "à¦¹"
      ],
      [
        "Ġà¦īà¦ª",
        "à¦®à¦¹"
      ],
      [
        "à¦Ĩ",
        "à¦²"
      ],
      [
        "Ġà¦ıà¦ķà¦ľà¦¨",
        "à¦ķ"
      ],
      [
        "Ġà¦īà¦²",
        "à¦Ł"
      ],
      [
        "Ġà¦Ĭ",
        "à¦°"
      ],
      [
        "à¦¬",
        "à¦Ń"
      ],
      [
        "à¦¸",
        "à¦¸à¦¹"
      ],
      [
        "Ġà¦¨",
        "à¦Ń"
      ],
      [
        "à¦Ł",
        "à¦¸"
      ],
      [
        "à¦¼à§ĩ",
        "-"
      ],
      [
        "à§Ģ",
        "?<"
      ],
      [
        "à¦Ń",
        "à¦¯"
      ],
      [
        "Ġà¦Ń",
        "à¦¦"
      ],
      [
        "Ġà¦ĩ",
        "à¦«"
      ],
      [
        "Ġà¦ĩ",
        "à¦¸à¦°"
      ],
      [
        "Ġà¦ľà¦¨",
        "à¦¤"
      ],
      [
        "Ġà¦īà¦ª",
        "à¦²à¦ķ"
      ],
      [
        "Ġà¦ħà¦ª",
        "à¦®"
      ],
      [
        "à¦ªà¦ķ",
        "à¦¥"
      ],
      [
        "Ġà¦Ĩà¦ķ",
        "à¦¬à¦°"
      ],
      [
        "à¦ĸà¦ķ",
        "à¦¦"
      ],
      [
        "à§¨à§¦à§",
        "¨"
      ],
      [
        "à¦¬",
        "à¦ľ"
      ],
      [
        "Ġà¦¬",
        "à¦ľ"
      ],
      [
        "Ġà¦®",
        "à¦¯"
      ],
      [
        "Ġà¦¹",
        "à¦¸"
      ],
      [
        "à¦Ĺ",
        "à¦¦"
      ],
      [
        "Ġà¦ħ",
        "à¦¯"
      ],
      [
        "Ġà¦¯",
        "à¦¨"
      ],
      [
        "Ġà¦°",
        "à¦¸"
      ],
      [
        "Ġà¦ıà¦ķ",
        "à¦¸"
      ],
      [
        "à¦¤à¦°",
        "à¦£"
      ],
      [
        "à¦ĺ",
        "à¦Ł"
      ],
      [
        "à¦°à¦¸",
        "à¦¨"
      ],
      [
        "à¦¾",
        "."
      ],
      [
        "à¦°",
        "à¦¬à¦°"
      ],
      [
        "à¦ķ",
        "à¦Ĺ"
      ],
      [
        "à¦®",
        "à¦°à¦£"
      ],
      [
        "Ġà¦¸",
        "à¦ł"
      ],
      [
        "Ġà¦ª",
        "à¦£"
      ],
      [
        "à¦¸",
        "à¦Ľ"
      ],
      [
        "à¦ª",
        "à¦²"
      ],
      [
        "à¦Ĺ",
        "à¦Ł"
      ],
      [
        "à¦¡",
        "à¦¨"
      ],
      [
        "Ġà¦ħ",
        "à¦¬à¦°"
      ],
      [
        "à¦£",
        "à¦¦"
      ],
      [
        "Ġà¦ī",
        "à¦ĩà¦ķ"
      ],
      [
        "à¦«",
        "à¦¸"
      ],
      [
        "Ġà¦ĸ",
        "à¦¡"
      ],
      [
        "à¦ł",
        "à¦¸"
      ],
      [
        "à¦¾à¦ģ",
        ","
      ],
      [
        "Ġà¦ıà¦°",
        "à¦®à¦§"
      ],
      [
        "à¦°à¦¬",
        "à¦²"
      ],
      [
        "Ġà§¨",
        "à§ª"
      ],
      [
        "à¦·à¦ķ",
        "à¦¦"
      ],
      [
        "à¦¼à§Ģ",
        ","
      ],
      [
        "Ġà§§à§¯",
        "à§ª"
      ],
      [
        "à¦¿",
        "."
      ],
      [
        "à¦®",
        "à¦®"
      ],
      [
        "Ġà¦¸",
        "à¦²"
      ],
      [
        "Ġà¦Ĩ",
        "à¦Ń"
      ],
      [
        "Ġà¦Ĩ",
        "à¦ĸà¦¤"
      ],
      [
        "à¦ĩ",
        "à¦¶"
      ],
      [
        "Ġà¦¦",
        "à¦¯"
      ],
      [
        "Ġà¦¦",
        "à¦®à¦¨"
      ],
      [
        "Ġà¦®",
        "à¦£"
      ],
      [
        "Ġà¦ľ",
        "à¦Ł"
      ],
      [
        "Ġà¦ľ",
        "à¦Ļ"
      ],
      [
        "à¦Ń",
        "à¦Ļ"
      ],
      [
        "Ġà¦ıà¦ķ",
        "à¦ķ"
      ],
      [
        "Ġà¦ĵ",
        "à¦ĸ"
      ],
      [
        "Ġà¦²",
        "à¦ľ"
      ],
      [
        "Ġà¦ĩ",
        "à¦¦"
      ],
      [
        "Ġà¦ĩ",
        "à¦Ł"
      ],
      [
        "Ġà§¨",
        "à§®"
      ],
      [
        "Ġà¦ıà¦®à¦¨",
        "à¦ĩ"
      ],
      [
        "Ġà¦ĺà¦°",
        "à¦Ł"
      ],
      [
        "Ġà¦Ĩà¦ª",
        "à¦²"
      ],
      [
        "Ġà¦Ĩà¦ļ",
        "à¦°à¦£"
      ],
      [
        "à¦²",
        "à¦ĵ"
      ],
      [
        "à¦¬",
        "à¦£"
      ],
      [
        "Ġà¦ķ",
        "à¦¦"
      ],
      [
        "à¦®",
        "à¦ĩ"
      ],
      [
        "Ġà¦¬",
        "à¦Ł"
      ],
      [
        "Ġà¦Ĩ",
        "à¦¨à¦¤"
      ],
      [
        "à¦Ł",
        "à¦Ń"
      ],
      [
        "Ġà¦ı",
        "à¦¶"
      ],
      [
        "Ġà¦®",
        "à¦¶"
      ],
      [
        "à¦¶",
        "à¦ª"
      ],
      [
        "à¦·",
        "à¦ķà¦°"
      ],
      [
        "Ġà¦ī",
        "à§İà¦ķ"
      ],
      [
        "Ġà¦ĸ",
        "à¦¯"
      ],
      [
        "à¦ľà¦¨",
        "à¦ĩ"
      ],
      [
        "Ġà¦ħà¦¬",
        "à¦®"
      ],
      [
        "Ġà§¨",
        "à§§"
      ],
      [
        "Ġà¦īà¦ª",
        "à¦¯"
      ],
      [
        "Ġà¦Ĩà¦ľ",
        "à¦ĵ"
      ],
      [
        "Ġà¦¸à¦¨",
        "à¦¦"
      ],
      [
        "Ġà¦®à¦¹",
        "à¦²"
      ],
      [
        "Ġà¦Ĺà¦Ń",
        "à¦°"
      ],
      [
        "Ġà¦Ĩà¦ĩ",
        "à¦¸"
      ],
      [
        "à¦²",
        "à¦¶"
      ],
      [
        "à¦¼",
        "à¦Ĥ"
      ],
      [
        "à§ĭ",
        "'"
      ],
      [
        "à¦¸",
        "à¦ļ"
      ],
      [
        "Ġà¦Ĩ",
        "à¦ĵà¦¤"
      ],
      [
        "Ġà¦¨",
        "à¦®"
      ],
      [
        "à¦Ľ",
        "à¦Ł"
      ],
      [
        "Ġà¦¦",
        "à¦£"
      ],
      [
        "à¦ª",
        "à¦¶"
      ],
      [
        "à¦¶",
        "à¦¦"
      ],
      [
        "à§Ģ",
        "),"
      ],
      [
        "à¦ľ",
        "à¦ķà¦°"
      ],
      [
        "Ġà¦¤",
        "à¦¤à¦ķ"
      ],
      [
        "à¦Ĺ",
        "à¦Ĺ"
      ],
      [
        "à¦ļ",
        "à¦¬"
      ],
      [
        "à¦¥",
        "à¦¤"
      ],
      [
        "à¦¥",
        "à¦®"
      ],
      [
        "Ġà¦¶",
        "à¦«"
      ],
      [
        "Ġà¦Ĺ",
        "à¦¤à¦¬"
      ],
      [
        "Ġà¦ªà¦°",
        "à¦¤"
      ],
      [
        "Ġà¦ªà¦°",
        "à¦®"
      ],
      [
        "Ġà¦ıà¦ĩ",
        "à¦®"
      ],
      [
        "Ġà¦ĩ",
        "à¦°"
      ],
      [
        "à¦ī",
        "à¦ĩ"
      ],
      [
        "Ġà¦ħà¦¬",
        "à¦ķ"
      ],
      [
        "Ġà¦ķà¦¬",
        "à¦ļ"
      ],
      [
        "Ġà¦ıà¦ĸà¦¨",
        "à¦ĩ"
      ],
      [
        "à¦°à¦¥à¦®",
        "à¦¬"
      ],
      [
        "à§©",
        "à§¦"
      ],
      [
        "à¦¿",
        "),"
      ],
      [
        "à¦¨",
        "à¦¬à¦¨"
      ],
      [
        "Ġà¦ķ",
        "à¦¡"
      ],
      [
        "Ġà¦¬",
        "à¦¬"
      ],
      [
        "Ġà¦¬",
        "à¦¦à¦°"
      ],
      [
        "à¦Ľ",
        "à¦ķ"
      ],
      [
        "à¦ª",
        "à¦¦à¦ķ"
      ],
      [
        "Ġà¦ķà¦°",
        "à¦ª"
      ],
      [
        "à¦·",
        "à¦¨"
      ],
      [
        "Ġà¦ıà¦ķ",
        "à¦ªà¦°"
      ],
      [
        "Ġà¦ī",
        "à¦°"
      ],
      [
        "Ġà¦²",
        "à¦¤"
      ],
      [
        "Ġà¦ħà¦¬",
        "à¦²à¦®"
      ],
      [
        "à¦ı",
        "à¦ķ"
      ],
      [
        "à¦°à¦¬",
        "à¦¤"
      ],
      [
        "Ġà¦īà¦ª",
        "à¦Ń"
      ],
      [
        "Ġà§§à§",
        "§à§"
      ],
      [
        "à¦¯à¦®",
        "à¦ķ"
      ],
      [
        "Ġà¦Ĩà¦¦",
        "à¦°"
      ],
      [
        "Ġà§¨à§¦à§§à§",
        "©"
      ],
      [
        "à¦°à¦ªà¦°",
        "à¦¨"
      ],
      [
        "Ġà¦ĩà¦ī",
        "à¦ıà¦¸"
      ],
      [
        "'",
        "-"
      ],
      [
        "à¦¯",
        "à¦ľ"
      ],
      [
        "Ġà¦ķ",
        "à¦ļ"
      ],
      [
        "Ġà¦¸",
        "à¦ľ"
      ],
      [
        "Ġà¦ª",
        "à¦¨"
      ],
      [
        "à¦¸",
        "à¦¸"
      ],
      [
        "Ġà¦¦",
        "à¦¤"
      ],
      [
        "à¦¶",
        "à¦«"
      ],
      [
        "à¦ľ",
        "à¦ĸ"
      ],
      [
        "à¦¹",
        "à¦ľ"
      ],
      [
        "à¦ĵ",
        "à¦°"
      ],
      [
        "Ġà¦Ĺ",
        "à¦¨"
      ],
      [
        "Ġà¦«",
        "à¦¸à¦²"
      ],
      [
        "à¦°à¦ķ",
        "à¦°"
      ],
      [
        "Ġà¦ĺ",
        "à¦°à¦¬"
      ],
      [
        "à¦¬à¦°",
        "à¦ĩ"
      ],
      [
        "à¦¬à¦¨",
        "à¦ķ"
      ],
      [
        "à¦ŀ",
        "à¦ª"
      ],
      [
        "Ġà¦ļà¦²",
        "à¦®"
      ],
      [
        "Ġà§¨",
        "à§«"
      ],
      [
        "à¦Ĩ",
        "à¦¨"
      ],
      [
        "Ġà¦īà¦¦",
        "à¦¯"
      ],
      [
        "Ġà¦ķà¦²",
        "à¦®"
      ],
      [
        "Ġà§«",
        "à§¦"
      ],
      [
        "à¦°à¦«",
        "à¦°à¦®"
      ],
      [
        "Ġà§¦",
        "à§¨"
      ],
      [
        "Ġà¦Ĩà¦«",
        "à¦Ĺ"
      ],
      [
        "Ġà¦¸à¦«",
        "à¦²à¦¤"
      ],
      [
        "à¦¤",
        "à¦«"
      ],
      [
        "à¦¬",
        "à¦®"
      ],
      [
        "Ġà¦Ĩ",
        "à¦ªà¦¤"
      ],
      [
        "à¦Ľ",
        "à¦²"
      ],
      [
        "à¦ª",
        "à¦Ĺ"
      ],
      [
        "à¦¶",
        "à¦¸"
      ],
      [
        "à¦·",
        "à¦Ĺ"
      ],
      [
        "à¦¡",
        "à¦®"
      ],
      [
        "à¦¡",
        "à¦Ń"
      ],
      [
        "à¦ļ",
        "à¦®"
      ],
      [
        "à¦ļ",
        "à¦¡"
      ],
      [
        "Ġà¦Ľ",
        "à¦¦"
      ],
      [
        "Ġà¦«",
        "à¦ľà¦²"
      ],
      [
        "Ġà¦ľà¦¨",
        "à¦ķ"
      ],
      [
        "Ġà¦¸à¦¬",
        "à¦ĩ"
      ],
      [
        "Ġà¦¸à¦¬",
        "à¦¸à¦®à¦¯"
      ],
      [
        "à¦Ĩ",
        "à¦ĵà¦¯"
      ],
      [
        "Ġà§§à§",
        "¬"
      ],
      [
        "à¦°à¦§",
        "à¦°"
      ],
      [
        "Ġà¦Ĺà¦£",
        "à¦Ń"
      ],
      [
        "Ġà¦ķà¦¤",
        "à¦¦"
      ],
      [
        "Ġà¦¸à¦ķà¦²",
        "à¦ķ"
      ],
      [
        "Ġà¦ªà¦°à¦ªà¦°",
        "à¦ĩ"
      ],
      [
        "à§ĩ",
        "."
      ],
      [
        "à¦°",
        "à¦¬à¦¨"
      ],
      [
        "Ġà¦ķ",
        "à¦¤à¦ķ"
      ],
      [
        "à¦®",
        "à¦Ľ"
      ],
      [
        "Ġà¦Ĩ",
        "à¦ķà¦¤"
      ],
      [
        "Ġà¦¨",
        "à¦°à¦ķ"
      ],
      [
        "à¦Ł",
        "à¦Ł"
      ],
      [
        "à¦ª",
        "à¦ļ"
      ],
      [
        "Ġà¦¹",
        "à¦ĩ"
      ],
      [
        "Ġà¦ħ",
        "à¦¹"
      ],
      [
        "Ġà¦Ń",
        "à¦°à¦¸"
      ],
      [
        "Ġà¦ĵ",
        "à¦¸"
      ],
      [
        "Ġà¦ĸ",
        "à¦¨"
      ],
      [
        "Ġà¦ĩ",
        "à¦¸"
      ],
      [
        "à¦¼à¦¿",
        "-"
      ],
      [
        "Ġà¦Ĩà¦Ĺ",
        "à¦®à¦¨"
      ],
      [
        "Ġà§¨",
        "à§©"
      ],
      [
        "à¦ĺ",
        "à¦¶"
      ],
      [
        "à§¦à§",
        "Ń"
      ],
      [
        "à¦¬à¦²",
        "à¦Ľ"
      ],
      [
        "Ġà¦Ĳ",
        "à¦¤"
      ],
      [
        "Ġà¦Ĩà¦¶",
        "à¦°"
      ],
      [
        "Ġà¦¯à¦ĸà¦¨",
        "à¦ĩ"
      ],
      [
        "Ġà§¨à§¦à§¦à§",
        "§"
      ],
      [
        "Ġà¦Ī",
        "à¦¶"
      ],
      [
        "à¦¿",
        "!<"
      ],
      [
        "à¦¯",
        "à¦Ń"
      ],
      [
        "à¦¬",
        "à¦ĵ"
      ],
      [
        "à¦¦",
        "à¦¸"
      ],
      [
        "à¦ľ",
        "à¦Ĺ"
      ],
      [
        "Ġà¦Ĺ",
        "à¦°à¦®"
      ],
      [
        "Ġà¦ī",
        "à¦Ńà¦¯"
      ],
      [
        "Ġà¦ªà¦°",
        "à¦ĩ"
      ],
      [
        "Ġà¦ıà¦ĩ",
        "à¦¸à¦¬"
      ],
      [
        "Ġà¦ĩ",
        "à¦¬"
      ],
      [
        "Ġà¦ĩ",
        "à¦Ļ"
      ],
      [
        "à¦ªà¦°",
        "à¦¬à¦°"
      ],
      [
        "Ġà¦ıà¦°",
        "à¦ĩ"
      ],
      [
        "à¦°à¦®",
        "à¦¶"
      ],
      [
        "Ġà§¨",
        "à§¨"
      ],
      [
        "à¦ļà¦¨",
        "à¦ķ"
      ],
      [
        "à¦Ĩ",
        "à¦Ĺ"
      ],
      [
        "à¦ĺ",
        "à¦Łà¦¨"
      ],
      [
        "à¦®à¦ķ",
        "à¦°à¦£"
      ],
      [
        "à¦¶à¦ķ",
        "à¦¦"
      ],
      [
        "Ġà¦Ĳ",
        "à¦ķ"
      ],
      [
        "à¦Ĺà¦¨",
        "à¦¬"
      ],
      [
        "Ġà§§à§¯à§",
        "«"
      ],
      [
        "Ġà¦ªà¦¦",
        "à¦¤"
      ],
      [
        "à¦ħ",
        "à¦¨"
      ],
      [
        "à¦¤",
        "à¦¨à¦¤"
      ],
      [
        "à¦²",
        "à¦ĸ"
      ],
      [
        "à¦²",
        "à¦īà¦¦"
      ],
      [
        "à¦¼",
        "à§į"
      ],
      [
        "Ġà¦¸",
        "à¦¡"
      ],
      [
        "à¦¦",
        "à¦®à¦¸"
      ],
      [
        "à¦¸",
        "à¦¡"
      ],
      [
        "Ġà¦Ĩ",
        "à¦ĩà¦Ł"
      ],
      [
        "à¦Ł",
        "à¦¹"
      ],
      [
        "à¦Ľ",
        "à¦¬"
      ],
      [
        "à¦ĩ",
        "à¦ľà¦¨"
      ],
      [
        "Ġà¦ı",
        "à¦°à¦ķà¦®"
      ],
      [
        "Ġà¦®",
        "à¦²"
      ],
      [
        "Ġà¦®",
        "à§İà¦¸"
      ],
      [
        "à¦ª",
        "à¦ĩ"
      ],
      [
        "Ġà¦¤",
        "à¦¦"
      ],
      [
        "à¦Ĺ",
        "à¦ĩ"
      ],
      [
        "Ġà¦ħ",
        "à¦ļ"
      ],
      [
        "à¦§",
        "à¦Ń"
      ],
      [
        "Ġà¦¯",
        "à¦¤à¦ķ"
      ],
      [
[...]
